'<pad>'
'<EOS>'
'._'
', _'
'_'
'the_'
'að_'
'a_'
''_'
'of_'
's_'
'og_'
'?_'
'to_'
'er_'
'í_'
' (_'
'á_'
'in_'
'and_'
'I_'
'you_'
'-_'
'sem_'
'/_'
'með_'
't_'
'. _'
'um_'
'ekki_'
'is_'
'with_'
'við_'
'!_'
'1_'
'r_'
'i_'
'Ég_'
'til_'
'for_'
') _'
'or_'
'be_'
'on_'
'm_'
'mg_'
'it_'
'eða_'
'that_'
'fyrir_'
'e_'
'það_'
'af_'
'n_'
'ég_'
'4_'
'not_'
')._'
',_'
'your_'
'2_'
'þú_'
'You_'
'5_'
'd_'
'The_'
'en_'
'have_'
'u_'
'hjá_'
'are_'
'var_'
'was_'
'ð_'
'ur_'
'me_'
'ed_'
'this_'
'0_'
'3_'
'ar_'
'patients_'
'y_'
'an_'
'eru_'
'ing_'
'as_'
'hann_'
'at_'
'eftir_'
're_'
': _'
'Þú_'
'should_'
'Það_'
'l_'
'ir_'
')_'
'..._'
'þér_'
'meðferð_'
'my_'
'It_'
'þetta_'
'hefur_'
'ml_'
'can_'
'% _'
'6_'
'því_'
'st_'
'dose_'
'we_'
'verið_'
'inn_'
'do_'
':_'
'from_'
'sjúklingum_'
'up_'
'see_'
'by_'
'know_'
'all_'
'may_'
'ið_'
'skal_'
'10_'
'get_'
'were_'
'þig_'
'... _'
'), _'
'mér_'
'if_'
'one_'
'been_'
'g_'
'he_'
'treatment_'
'Við_'
'What_'
'will_'
'ef_'
'A_'
'frá_'
'Þetta_'
'8_'
'what_'
'll_'
'out_'
'hafa_'
'no_'
'es_'
'don_'
'like_'
'use_'
'Ef_'
'fram_'
'We_'
'úr_'
'Ekki_'
'here_'
'sjá_'
'If_'
've_'
'mig_'
'just_'
'Hann_'
'him_'
'there_'
'No_'
'In_'
'has_'
'about_'
'na_'
'getur_'
'And_'
'He_'
'7_'
'þá_'
'right_'
'they_'
'other_'
'ert_'
'go_'
'Hvað_'
'þar_'
'voru_'
'nota_'
'us_'
'þegar_'
'who_'
'kafla_'
'al_'
'svo_'
'got_'
'; _'
'That_'
'after_'
'- _'
'time_'
'Í_'
'ng_'
'9_'
'take_'
'any_'
'This_'
'but_'
'þess_'
'eins_'
'k_'
'C_'
'used_'
'when_'
'Og_'
'ly_'
'num_'
'100_'
'vera_'
'section_'
'x_'
'than_'
'her_'
'upp_'
'allt_'
'them_'
'notkun_'
'so_'
'doctor_'
'? _'
'12_'
'had_'
'blood_'
'ri_'
'day_'
'verður_'
'ni_'
'c_'
'his_'
'more_'
'50_'
'o_'
'30_'
'kg_'
'nn_'
'En_'
'út_'
'ra_'
'bara_'
'ion_'
'want_'
'p_'
'think_'
'hvað_'
'sé_'
'man_'
'ðu_'
'h_'
'back_'
'20_'
'tablets_'
'má_'
'before_'
'vegna_'
'þeim_'
'years_'
'Do_'
'But_'
'need_'
'áhrif_'
'There_'
'lyf_'
'! _'
'gonna_'
'þeir_'
'now_'
'inniheldur_'
'some_'
'hún_'
'clinical_'
'these_'
'koma_'
'S_'
'They_'
'injection_'
'áður_'
'Já_'
'did_'
'fá_'
'gera_'
'going_'
'aftur_'
'Oh_'
'dag_'
'okkur_'
'taka_'
'fara_'
'over_'
'EU_'
'hér_'
'which_'
'000_'
'must_'
'Yeah_'
'"_'
'studies_'
'down_'
'ja_'
'sjúklinga_'
'fengu_'
'sér_'
'How_'
'Nei_'
'honum_'
'Well_'
'only_'
'she_'
'administration_'
'into_'
'good_'
'geta_'
'nu_'
'solution_'
'Hún_'
'reactions_'
'So_'
'during_'
'contains_'
'recommended_'
'come_'
'ne_'
'study_'
'ði_'
'. - _'
'could_'
'15_'
'25_'
'töflur_'
'effects_'
'people_'
'first_'
'way_'
'two_'
'yfir_'
'treated_'
'B_'
'ára_'
'24_'
'le_'
'risk_'
'would_'
'hana_'
'komið_'
'ation_'
'Er_'
'tell_'
'mean_'
'therapy_'
'how_'
'their_'
'þarf_'
'off_'
'þessu_'
'ín_'
'taking_'
'án_'
'our_'
'administered_'
'am_'
'T_'
'mín_'
'þið_'
'She_'
'b_'
'un_'
'make_'
'such_'
'very_'
'age_'
'say_'
'hef_'
'rannsóknum_'
'vel_'
'nar_'
'veit_'
'increased_'
'samhliða_'
'andi_'
'Hey_'
'N_'
'einu_'
'days_'
'daily_'
'undir_'
'meðan_'
'hans_'
'lagi_'
'lega_'
'upplýsingar_'
'f_'
'."_'
'following_'
'Hvernig_'
'gefa_'
'weeks_'
'reported_'
'observed_'
'said_'
'Come_'
'side_'
'minn_'
'medicinal_'
'P_'
'gefið_'
'ist_'
' '
'All_'
'nt_'
'little_'
'18_'
'L_'
'D_'
'gjöf_'
'mun_'
'ndi_'
'too_'
'medicine_'
'lausn_'
'tíma_'
' - _'
'segja_'
'ce_'
'notað_'
'(_'
'tu_'
'Hver_'
' _'
'HIV_'
'disease_'
'vil_'
'ns_'
'kom_'
'hverju_'
'plasma_'
'life_'
'sinni_'
'=_'
'ta_'
'adverse_'
'ins_'
'then_'
'something_'
'never_'
'gegn_'
'also_'
'sagði_'
'where_'
'lyfið_'
'R_'
'ine_'
'saman_'
'Let_'
'maður_'
'including_'
'data_'
'renal_'
'Þeir_'
'God_'
'son_'
'mjög_'
'%) _'
'skammta_'
'ykkur_'
'pain_'
'let_'
'Þegar_'
'hours_'
'60_'
'didn_'
'nú_'
'those_'
'given_'
'patient_'
'product_'
'ts_'
'medicines_'
'hvort_'
'ast_'
'nni_'
'ic_'
'For_'
'severe_'
'se_'
'’_'
'aukaverkanir_'
'Don_'
'þeirra_'
'Your_'
'really_'
'14_'
'kemur_'
'months_'
'þau_'
' = _'
'T'
'40_'
'film_'
'When_'
'unum_'
'Á_'
'aldrei_'
'coated_'
'infusion_'
'combination_'
'rannsókn_'
'ch_'
'Now_'
'once_'
'meðferðar_'
'Því_'
'te_'
'children_'
'skin_'
'erum_'
'placebo_'
'body_'
'vial_'
'look_'
'eitthvað_'
'long_'
'hafi_'
'klst_'
'Why_'
'de_'
'tion_'
'thing_'
'because_'
'AUC_'
'ekkert_'
'without_'
'doses_'
'henni_'
'rs_'
'Lord_'
'vita_'
'skammt_'
'nir_'
'inu_'
'hægt_'
'increase_'
'My_'
'heart_'
'symptoms_'
'sig_'
'E_'
'stendur_'
'give_'
'þ_'
'þinn_'
'oral_'
'pre_'
'ate_'
'Get_'
'w_'
' "_'
'P'
'safety_'
'þessum_'
'ina_'
'einnig_'
'syringe_'
'inni_'
'fer_'
'skammtur_'
'200_'
'well_'
'enn_'
'less_'
'ður_'
'sjúklingar_'
'G'
'okkar_'
'verkun_'
'gæti_'
'di_'
'ble_'
'75_'
'verða_'
'Okay_'
'every_'
'sins_'
'fengið_'
'börnum_'
'la_'
'last_'
'húð_'
'ár_'
'much_'
' – _'
'taken_'
'Just_'
'ment_'
'N'
'away_'
'O'
'öðrum_'
'impairment_'
'Af_'
'Mr_'
'R'
'Yes_'
'ti_'
'acid_'
'öllum_'
'alfa_'
'using_'
'11_'
'products_'
'13_'
'Patients_'
'effect_'
'love_'
'stað_'
'lyfleysu_'
'hætta_'
'help_'
'þín_'
'each_'
'hættu_'
'tíðni_'
'urinn_'
'ry_'
'95_'
'tablet_'
'levels_'
'svona_'
'væri_'
'ons_'
'work_'
'through_'
'ty_'
'lækninn_'
'sure_'
'80_'
'information_'
'áfram_'
'week_'
'human_'
'active_'
'ers_'
'ásamt_'
' % _'
'Mér_'
'lyfja_'
'viku_'
'per_'
'el_'
'D'
'menn_'
'filled_'
'E'
'doing_'
'stop_'
'tala_'
'28_'
'three_'
'water_'
'ka_'
'subjects_'
'liver_'
'daga_'
'infection_'
'hérna_'
'ætti_'
'tt_'
'talk_'
'L'
'able_'
'high_'
'Eftir_'
'eitt_'
'single_'
'legt_'
'even_'
'group_'
'Each_'
'between_'
'F'
'F_'
'ever_'
'Þá_'
'compared_'
'Cmax_'
'klínískum_'
'red_'
'einkenni_'
'hafði_'
'made_'
'Ertu_'
'jum_'
'does_'
'exposure_'
'skerta_'
'þær_'
'gildi_'
'halda_'
'mikið_'
'efficacy_'
'gert_'
'300_'
'place_'
'available_'
'einn_'
'átt_'
'nýrnastarfsemi_'
'held_'
'sama_'
'Y'
'known_'
'meira_'
'sólarhring_'
'old_'
'put_'
'rnar_'
'V'
'find_'
'inntöku_'
'°_'
'niður_'
'again_'
'ia_'
'containing_'
'ness_'
'insulin_'
'16_'
'innan_'
'okay_'
'new_'
'associated_'
'please_'
'm2_'
'milli_'
'komu_'
'ertu_'
'night_'
'Hjá_'
'heldur_'
'most_'
'Look_'
'under_'
' „_'
'still_'
'around_'
'Til_'
'rar_'
'90_'
'sá_'
'S'
'V_'
'aðeins_'
'rétt_'
'until_'
'hepatic_'
'ðum_'
'líka_'
'núna_'
'Teva_'
'lyfsins_'
'within_'
'CYP3A4_'
'non_'
'Not_'
'Is_'
'Then_'
'told_'
'being_'
'? - _'
'weight_'
'same_'
'Where_'
'ge_'
'al'
'both_'
'co_'
'name_'
'its_'
'I'
'þéttni_'
'why_'
'd'
'00_'
'önnur_'
'A'
': "_'
'mælt_'
' < _'
'ls_'
'uð_'
'call_'
'while_'
'cause_'
'response_'
'One_'
'alltaf_'
'done_'
'hard_'
'rðu_'
'anything_'
'150_'
'site_'
'B'
'sodium_'
'home_'
'filmuhúðaðar_'
'Allt_'
'CI_'
'hvernig_'
'láta_'
'ous_'
'hylki_'
'Komdu_'
'M_'
'þessa_'
'seen_'
'lyfjum_'
') (_'
'Á'
'least_'
'öryggi_'
'function_'
'thought_'
'Viltu_'
'verð_'
'care_'
'ies_'
'ent_'
'K'
'skammti_'
'du_'
'Are_'
'low_'
'öll_'
'ted_'
'receiving_'
'ds_'
'vitro_'
'ity_'
'einstaklingum_'
'better_'
'women_'
'rate_'
'king_'
'handa_'
'400_'
'fucking_'
'th_'
' [_'
'annað_'
'valdið_'
'Að_'
'blóði_'
'land_'
'immediately_'
'vikur_'
'guys_'
'sorry_'
'hverjum_'
'ss_'
'Nú_'
'things_'
'þarna_'
'below_'
'li_'
'mL_'
'pregnant_'
'year_'
'Please_'
'G_'
'þessi_'
'guy_'
'gerð_'
'lifrarstarfsemi_'
'500_'
'fékk_'
'line_'
'always_'
'men_'
'M'
'höfðu_'
'Who_'
'potential_'
'Þið_'
'samkvæmt_'
'breast_'
'number_'
'called_'
'might_'
'These_'
'samanborið_'
'H'
'Can_'
'pack_'
'ða_'
'against_'
'fullorðnum_'
'segir_'
'times_'
'great_'
'engin_'
'stungulyf_'
'alla_'
'minni_'
'white_'
'ga_'
'system_'
'ræða_'
'due_'
'prior_'
'feel_'
'toxicity_'
'As_'
'sa_'
'Svo_'
'17_'
'Þessi_'
'ive_'
'events_'
'efni_'
'völdum_'
'% (_'
'keep_'
'ma_'
'another_'
'considered_'
'Ha'
'pressure_'
'ætla_'
'notkunar_'
'O_'
'hjarta'
'ðir_'
'capsules_'
'left_'
'cell_'
'nar'
'ful_'
'tekur_'
'related_'
'best_'
'mönnum_'
'case_'
'X_'
'baseline_'
'mat_'
'concentrations_'
'controlled_'
'strax_'
'ie_'
'Li'
'based_'
'type_'
'um'
'leið_'
'Hvar_'
'higher_'
'treat_'
'vikna_'
'et_'
'" _'
'notuð_'
' “_'
'inum_'
'tur_'
'cases_'
'hver_'
'48_'
'ting_'
'experience_'
'tvisvar_'
'tekið_'
'H_'
'end_'
'leg_'
'won_'
'trials_'
'sir_'
'Guð_'
'child_'
'dy_'
'mitt_'
'Sjúklingar_'
'þitt_'
'Farðu_'
'ide_'
'heim_'
'ritonavir_'
'virkni_'
'fyrstu_'
'change_'
'Þ'
'hefði_'
'Go_'
'skaltu_'
'cells_'
'síðan_'
'gott_'
'room_'
'IU_'
'nce_'
'To_'
'common_'
'il_'
'serious_'
'After_'
'next_'
'affect_'
'tafla_'
'herra_'
'da_'
'blóð'
'stu_'
'eiga_'
'sýnt_'
'bólga_'
'ki_'
'' _'
'rannsóknir_'
'vaccine_'
'needle_'
'minutes_'
'own_'
'pregnancy_'
'svörun_'
'varð_'
'meðgöngu_'
'food_'
'frumu'
'eftirfarandi_'
'Table_'
'ur'
'Ne'
'mánuði_'
'21_'
'ke_'
'father_'
'fór_'
'01'
'moderate_'
'65_'
'failure_'
'ma'
'population_'
'bleeding_'
'tic_'
'came_'
'fram'
'show_'
'Na'
'fyrsta_'
'coming_'
'twice_'
'II_'
'ná_'
'house_'
'powder_'
'nna_'
'allir_'
'eina_'
'alone_'
'ol_'
'Ro'
'money_'
'einhver_'
'am'
'normal_'
'Þar_'
'nothing_'
'big_'
'start_'
'una_'
'Drottinn_'
'eye_'
'læknirinn_'
'received_'
'kind_'
'reduced_'
'hætt_'
'nema_'
'either_'
'hear_'
'skömmtum_'
'leitt_'
'Ó'
'myndun_'
'Láttu_'
'farið_'
'bláæð_'
'possible_'
'lot_'
'sagt_'
'cancer_'
'ck_'
'infections_'
'aðu_'
'found_'
'inhibitors_'
'reaction_'
'ask_'
'Ma'
'together_'
'Eins_'
'Did_'
'Lo'
'endur'
'significant_'
'finna_'
'occur_'
'höfum_'
';_'
'open_'
'sis_'
'everything_'
'./_'
'mis'
'íni_'
'hennar_'
'Tell_'
'set_'
'hingað_'
', “_'
'half_'
'ber_'
'sinnum_'
'id_'
'whole_'
'light_'
'ning_'
'believe_'
'total_'
'signs_'
'ain_'
't'
'degi_'
'hækkun_'
'world_'
'J'
'45_'
'Kannski_'
'hópnum_'
'haft_'
'dar'
'went_'
'pen_'
'Take_'
'tis_'
'baby_'
'problems_'
'þörf_'
'adults_'
'post_'
'clearance_'
'required_'
'kill_'
'course_'
'Y_'
'annarra_'
'Mo'
'head_'
'enough_'
'a'
'shown_'
'cannot_'
'girl_'
'orðið_'
'respectively_'
'er'
'period_'
'aðra_'
'ling_'
'ci'
'boy_'
'vo'
'bad_'
'fle'
'shit_'
'70_'
'Di'
'Good_'
'X'
'innihalda_'
'her'
'friend_'
'second_'
'yourself_'
'doesn_'
'leave_'
'getting_'
'23_'
'börn_'
'22_'
'wanna_'
'hjarta_'
'ely_'
'results_'
'drug_'
'rnir_'
'Engar_'
'verðum_'
'ions_'
'ct_'
'v_'
'similar_'
'vildi_'
'samband_'
'reduction_'
'para'
'meiri_'
'ól_'
'control_'
'live_'
'rinn_'
' + _'
'Notkun_'
'activity_'
'contact_'
'Fyrir_'
'min_'
'gotta_'
'Ri'
'töflu_'
'liggja_'
'decreased_'
'Because_'
'ves_'
'dead_'
'face_'
'Ö'
'As'
'heildar'
'TI'
'Segðu_'
'þannig_'
'fer'
'); _'
'tra'
'many_'
'fólk_'
'56_'
'ter_'
'ne'
'allergic_'
'Da'
'La'
'John_'
'hélt_'
'van'
'enginn_'
'so'
'fleiri_'
'above_'
'approximately_'
'disorders_'
'ina'
'U_'
'finnst_'
'an'
'ó'
'mm_'
'1'
'K_'
'dosing_'
'ig'
'Áður_'
'order_'
'serum_'
'important_'
'ein_'
'hand_'
'hátt_'
'“ _'
'pharmacist_'
'talking_'
'rt_'
'wanted_'
'v'
'la'
'W'
'to'
'hluta_'
'vegar_'
'séð_'
'Here_'
'varðandi_'
'., _'
'lower_'
'tre'
'ally_'
'necessary_'
'anti_'
'ni'
'Re'
'rare_'
'intravenous_'
'C'
'þekkt_'
'sta_'
'skammta'
'gerir_'
'sinn_'
'bæði_'
'rannsókninni_'
'III_'
'free_'
'See_'
'ein'
'Maybe_'
'AR'
'ho'
'alvarlega_'
'hettuglas_'
'bil_'
'c'
'For'
'val'
'leita_'
'vill_'
'z_'
'eyes_'
'real_'
'þína_'
'inter'
'At_'
'Q'
'Le'
'gur_'
'ó_'
'Hvert_'
'veist_'
'ry'
'stay_'
'skammtinn_'
'Do'
'However_'
'aukaverkunum_'
'ir'
'íns_'
'Ge'
'fen'
'Mjög_'
'eigi_'
'late_'
' <_'
'lu'
'mother_'
'adjustment_'
'car_'
'looking_'
'bar'
'ör'
'íð_'
'mine_'
'meðal_'
'sex_'
'incidence_'
'bone_'
'PA'
'Ta'
'ance_'
'mar'
'tan'
'%), _'
'niðurstöður_'
'greint_'
'meðferðar'
'konum_'
'inndælingu_'
'wait_'
'viðeigandi_'
'changes_'
'veg_'
'staðar_'
'nd_'
'98_'
'il'
'if'
'250_'
'os'
'frequency_'
'12'
'Thank_'
'heard_'
'ál'
'nice_'
' '_'
'–_'
'mánaða_'
'else_'
'Ad'
'innrennsli_'
'remember_'
'ju'
'aði_'
'drive_'
'myndi_'
'rottum_'
'26_'
'date_'
'lengur_'
'ætlað_'
'clinically_'
'hold_'
'%, _'
'ag'
'þínum_'
'smá'
'tar'
'try_'
'death_'
'draga_'
'19_'
'einkennum_'
'small_'
'x'
'ps_'
'level_'
'rats_'
'loss_'
'saw_'
'ks_'
'stigs_'
'rash_'
'mild_'
'irðu_'
'samtímis_'
'ori'
'ykkar_'
'woman_'
'der_'
'hell_'
'Æ'
'indicated_'
'þarft_'
'inn'
'pa_'
'viðbrögð_'
'ep'
'decrease_'
'ter'
'séu_'
'month_'
'ec'
'paediatric_'
'To'
'primary_'
'ja'
'né_'
'Therefore_'
'virka_'
'job_'
'barn_'
'test_'
'mína_'
'suspension_'
'þennan_'
'eat_'
'færð_'
'of'
'getum_'
'unni_'
'no'
'Bo'
'pharmacokinetics_'
'” _'
'lyfja'
'us'
'Ab'
'raf'
'took_'
'Ho'
'mouth_'
'part_'
'ant_'
'vir_'
'kvöld_'
'Þau_'
'since_'
'healthy_'
'stór'
'vilt_'
'aður_'
'appropriate_'
'conditions_'
'ast'
'35_'
'feeding_'
'Læknirinn_'
'• _'
'sed_'
'tíma'
'varúðar_'
'p'
'sýna_'
'fuck_'
'wrong_'
'breytingar_'
'ól'
'tilvikum_'
'kann_'
'trying_'
'meta_'
'fine_'
'600_'
'mind_'
'clear_'
'De'
'different_'
'feeling_'
'bra'
'sýkingu_'
'Te'
'ss'
'lly_'
'lækkun_'
'02'
'óf'
'micrograms_'
'Ka'
'Upplýsingar_'
'Co'
'ready_'
'Go'
'za_'
'g'
'gra'
'few_'
'range_'
'morning_'
'Jæja_'
'mor'
'gla'
'pra'
'arm_'
'do'
'útsetningu_'
'family_'
'hands_'
'ý'
'bottle_'
'lækninum_'
'dí'
'result_'
'ces_'
'syndrome_'
'col'
'hyper'
'ms_'
'fyrst_'
'talið_'
'þó_'
'understand_'
'æða'
'mínum_'
'analysis_'
'We'
'adult_'
'beta_'
'2'
'he'
'monitored_'
'ke'
'New_'
'Pa'
'aukaverkana_'
'9'
'ós'
'allar_'
'eldri_'
'led_'
'ill'
'útbrot_'
'.”_'
'substance_'
'four_'
'Lu'
'Jack_'
'þ'
'gi'
'reyna_'
'full_'
'ona'
'Í'
'systemic_'
'or'
'bein'
'alveg_'
'un'
'w'
'ess_'
'zi'
'run_'
' ≥ _'
'concentration_'
'ari_'
'200'
'ingu_'
'Engin_'
'Ba'
'Du'
'þvag'
'kó'
'Ja'
'yngri_'
'happened_'
'y'
'expected_'
'm'
'someone_'
'3'
'lengi_'
'Treatment_'
'urine_'
'concomitant_'
'“_'
'Al'
'ton_'
'isn_'
'fylgjast_'
'ny_'
'hugsanlega_'
'ey_'
'drink_'
'soon_'
'die_'
'yt'
'El'
'Je'
'langt_'
'satt_'
'TA'
'Other_'
'ary_'
'ana_'
'af'
'listed_'
'mann_'
'ganga_'
'fresti_'
'go'
'ljós_'
'6'
'þessara_'
'xa'
'mynd_'
'inhibitor_'
'eri'
'follow_'
'table_'
'hepatitis_'
'Bu'
'neitt_'
'adolescents_'
'ngu_'
'húð'
'orð_'
'há'
'hour_'
'gun_'
'001_'
'gerði_'
', "_'
'sections_'
'gerðar_'
'ated_'
'HCV_'
'en'
'include_'
'%)._'
'ann_'
'ac'
'is'
'become_'
'ble'
'TE'
'ure_'
'öryggis'
'tenofovir_'
'magn_'
'En'
'CA'
'mál_'
'talin_'
'dogs_'
'sam'
'kannski_'
'sprautu_'
'Með_'
'sermi_'
'öllu_'
'hug'
'fyrr_'
'vomiting_'
'Pe'
'studied_'
'move_'
'ha'
'verði_'
'itis_'
'looks_'
'Ly'
'fast_'
'les_'
'ro'
'ðar_'
'sh_'
'að'
'úr'
'rs'
'n'
'bit_'
'yet_'
'skil'
'says_'
'monitoring_'
'vinna_'
'kur_'
'far_'
'Of_'
'zo'
'Sa'
'lea'
'mo'
'es'
'Su'
'wife_'
'limited_'
'Op'
'áhrifum_'
'acute_'
'óm'
'over'
'gg'
'already_'
'having_'
'Ra'
'five_'
'yr'
'medical_'
'ló'
'ók'
'Gu'
'lifrarbólgu_'
'fa'
'virus_'
'phase_'
'Bi'
'óh'
'ght_'
'aukið_'
'tar_'
'ls'
'ga'
'ani'
'yfir'
'klínískt_'
'. -_'
'):_'
'pri'
'IN'
'ns'
'annars_'
'sykursýki_'
'Very_'
'minna_'
'Ste'
'hvert_'
'32_'
'í'
'öðru_'
'dra'
'term_'
'tests_'
'AD'
'dri'
'Takk_'
'Svona_'
'hærri_'
'Hér_'
'.'
'cap_'
'Má_'
'ofnæmi_'
'bak'
'ster_'
'check_'
'kosti_'
'volume_'
'Un'
'release_'
'pharmacokinetic_'
'metformin_'
'bit'
'bólgu_'
'ad'
'Ed'
'tas'
'Veistu_'
'history_'
'dis'
'þessari_'
'pa'
'e'
'glass_'
'19'
'tor_'
'11'
'lost_'
'and'
'Hel'
'gh'
'stærri_'
'ren'
'hluti_'
'Har'
'brjósti_'
'tions_'
'yður_'
'ví'
'Vertu_'
'Sk'
'sl'
'ap'
'ða'
'lead_'
'trial_'
'meðhöndla_'
'Tu'
'201'
're'
'ot'
'today_'
'solvent_'
'sel'
'09_'
'kominn_'
'Sp'
'/ _'
'uti'
'*_'
') '
'ring_'
'arf'
'bri'
'ami'
'lyfinu_'
'Mor'
'h'
'lyfjagjöf_'
'komast_'
'gi_'
'starting_'
'agents_'
'Þér_'
'góður_'
'ba'
'ver_'
'eruð_'
'vinur_'
'ram'
'caution_'
'einhverju_'
'minnsta_'
'ed'
'ans_'
'Pi'
'BA'
'8'
'fe'
'slu'
'ógleði_'
'wi'
'tveimur_'
'AL'
'sn'
'14'
'wouldn_'
'th'
'algengar_'
'auka_'
'per'
'duration_'
'established_'
'aged_'
'wasn_'
'whether_'
'state_'
'tegund_'
'Jo'
'Ga'
'protein_'
'benefit_'
'bring_'
'Sjá_'
'aðrar_'
'meet_'
'oni'
'mi'
'cho'
'æxli_'
'maximum_'
'co'
'ut'
'Ser'
'therefore_'
'Ekkert_'
'Mylan_'
'.._'
'lar_'
'yk'
'Per'
'7'
'lifur_'
'bor'
'átti_'
'performed_'
'miðað_'
'mi_'
'xi'
' -_'
'tók_'
'lyfjahvörf_'
'ago_'
'vel'
'q_'
'por'
'Accord_'
'experienced_'
'ón'
'sla'
'cli'
'car'
'13'
'evaluated_'
'52_'
'fa_'
'i'
'hefja_'
'cra'
'reduce_'
'gli'
'verkur_'
'mer'
'höfuð'
'pp'
'matter_'
'Enginn_'
'Have_'
'bú'
'ljós'
'glucose_'
'36_'
'vatni_'
'fimm_'
'fold_'
'unar'
'further_'
'sb'
'problem_'
'læg'
'breyta_'
'ri'
'ráða_'
'min'
'minute_'
'ust_'
'ors_'
'líf'
'knew_'
'ah'
'5'
'turn_'
'killed_'
'arg'
'úl'
'hita_'
'ae'
'OK_'
'est_'
'Allir_'
'hl'
'oli'
'anna_'
'drepa_'
'Ki'
'rest_'
'Sha'
'18'
'diabetes_'
'84_'
'móti_'
'mí'
'byrjað_'
'sérstaklega_'
'hypo'
'point_'
'800_'
'geri_'
'viss_'
'milk_'
'me'
'des'
'hi'
'nurse_'
'baka_'
'PVC_'
'ability_'
'special_'
'city_'
'Ó_'
'ft_'
'Gra'
'skammtar_'
'close_'
'ory_'
'leysi_'
'gar_'
'Vi'
'tri'
'receive_'
'meðal'
'ab'
'sha'
'geð'
'vissi_'
'ran'
'double_'
'swelling_'
'ati'
'anir_'
'EC'
'hálf'
'opa'
'in'
'ssi'
'count_'
'fá'
'Pre'
'stungustað_'
'fjölda_'
'b'
'4'
'þangað_'
'eftirlit_'
'CL'
'gefin_'
'Bara_'
'sli'
'máli_'
'Give_'
'Fo'
'creatinine_'
'sy'
'shall_'
'relevant_'
'mínútur_'
'idea_'
'ýl'
'yeah_'
'label_'
'yl'
'samræmi_'
'nausea_'
'kil'
'flug'
'Like_'
'þr'
'ral'
'gone_'
'ence_'
' (≥ _'
'nd'
'geyma_'
'vi'
'randomised_'
'Use_'
'on'
'ferð_'
'dre'
'chronic_'
'RE'
'sömu_'
'hvar_'
'æð_'
'ku'
'upp'
'® _'
'skulu_'
'ske'
'lífi_'
'animals_'
'Mig_'
'chloride_'
'ass_'
'cer'
'tum_'
'benda_'
'Some_'
'morgun_'
'dia'
'virðist_'
'kidney_'
'Sto'
'war'
'sprauta_'
'augn'
'occurred_'
'kr'
'discontinued_'
'Bíddu_'
'sögu_'
'heilbrigðum_'
'Bar'
'Sam'
'va_'
'capsule_'
'Er'
'Pro'
'hem'
'cu'
'Kl'
'muscle_'
'evidence_'
'myself_'
'hol'
'ade'
'Taktu_'
'nnar_'
'míkrógrömm_'
'! - _'
' / _'
'gt_'
'uppköst_'
'ger_'
'bur'
'LE'
'15'
'guess_'
'stóð_'
'illa_'
'manna_'
'nu'
'lo'
'Hi'
'area_'
'AN'
'forget_'
'fi'
'Jesus_'
'the'
'sun'
'Right_'
'01_'
'merki_'
'hjálpa_'
'ið'
'diarrhoea_'
'Be'
'yellow_'
'vit'
'r'
'o'
'þvagi_'
'frum'
'read_'
'pal'
'ís'
'áhættu_'
'Fyrirgefðu_'
'óg'
'íl'
'ze_'
': '
')'
'vart_'
'ál_'
'saying_'
'peg'
'rb'
'Han'
'greater_'
'median_'
'ak'
'mon'
'blóðs'
'heil'
'ding_'
'Pharma_'
' ‘_'
'ní'
'ás'
'pretty_'
'demonstrated_'
'brother_'
'Sjáðu_'
'longer_'
'legur_'
'ALT_'
'ín'
'minnka_'
'einum_'
'innihaldsefni_'
'innar_'
'ff'
'alcohol_'
'factor_'
'pí'
'vor'
'utan_'
'dec'
'Dan'
'kyn'
'Tafla_'
'gave_'
'Mar'
'ud'
'injections_'
'Wait_'
'maybe_'
'heila'
'einhvern_'
'tonight_'
'jar'
'tafarlaust_'
'store_'
'rt'
'Nor'
'fever_'
'96_'
'word_'
'pha'
'ka'
'can'
'wa'
'fjöl'
'Keep_'
'ser'
'ici'
'hugsa_'
'development_'
'comes_'
'annarri_'
'Her'
'legar_'
'daginn_'
'segi_'
'inflammation_'
'%._'
'ins'
'Po'
'Or'
'Fe'
'mein'
'Hi_'
'skr'
'young_'
'var'
'rd'
'sub'
'nk'
'auð'
'U'
'friends_'
'fla'
'varðar_'
'cur'
'machines_'
'lið_'
'specific_'
'geti_'
'alvarleg_'
'fr'
'Ni'
'elskan_'
'tími_'
'kk'
'þa'
'followed_'
'ír_'
'lokið_'
'innrennslis'
'gegnum_'
'Tre'
'ze'
'prótein'
'multiple_'
've'
'play_'
'] _'
'ments_'
'hlutfall_'
'bilinu_'
'barnið_'
'for'
'fall_'
'42_'
'showed_'
'Var'
'lic'
'gengur_'
'íu_'
'ila'
'vis'
'heilkenni_'
'Um_'
'f'
'po'
'förum_'
'einkum_'
'bas'
'ten'
'unglingum_'
'alo'
'úthreinsun_'
'ribavirin_'
'eni'
'ta'
'bre'
'according_'
'ættir_'
'usually_'
'nn'
'vatn_'
'working_'
'Pra'
'je'
'fn'
'ð'
'tt'
'full'
'vers'
'ef'
'meðhöndlaðir_'
'ras'
'form'
'grunn'
'ali'
'sýkingar_'
'sto'
'star'
'rk'
'burt_'
'nýrna'
'Tíðni_'
'stað'
'sta'
'sp'
'langar_'
'sýru'
'33_'
'ór'
'vaccination_'
'sent_'
'pabbi_'
'ale'
'air_'
'rc'
'blöndun_'
'frú_'
'ngar_'
'tilkynnt_'
'yn'
'MI'
'Pu'
'tur'
'door_'
'vilja_'
'ola'
'yðar_'
'poly'
'ia'
'form_'
'stjórn_'
'ingredients_'
'dóm'
'Ty'
'anyone_'
'du'
'µg_'
'varst_'
'tauga'
'included_'
'key_'
'dur_'
'class_'
'person_'
'mið'
'gar'
'te'
'su'
'hörð_'
'major_'
'iti'
'DA'
'ven'
'met_'
'hó'
'eg'
'kid_'
'lab'
'eingöngu_'
'Z'
'urðu_'
'fó'
'annan_'
'konur_'
'bóluefni_'
'ski'
'she'
'regimen_'
'pre'
'betur_'
'16'
'blister_'
'be'
'tó'
'sse'
'le'
'Si'
'Ir'
'ob'
'áætlun_'
'tilvik_'
'leaflet_'
'gs_'
'wo'
'sjaldgæfar_'
'ard_'
'eftir'
'jós'
'interferon_'
'wants_'
'ol'
'Ná'
'hvaða_'
'ano'
'pi'
'LA'
'via_'
'þátt_'
'ial_'
'flú'
'Ar'
'skalt_'
'sing_'
'hand'
'ík'
'lar'
'He'
'tru'
'sim'
'fre'
'dl_'
'stuff_'
'hr_'
'bi'
'Mu'
'Ru'
'urnar_'
'upphafi_'
'natríum_'
'leika_'
'Hu'
'chemotherapy_'
'1000_'
'stein'
'ie'
'da'
'31_'
'therapeutic_'
'mamma_'
'inside_'
'eth'
'Col'
'ru'
'DI'
'ase_'
'ini'
'ts'
'VI'
'Che'
'Ca'
'hefst_'
'--_'
'aka_'
'ar'
'On_'
'Aukaverkanir_'
'vandamál_'
'et'
'29_'
'haldið_'
'ær'
'unless_'
'ko'
'k'
'nei_'
'kið_'
'rö'
'infected_'
'27_'
'verk_'
'school_'
'fær_'
'qui'
'Greint_'
'veldur_'
'lifrar'
'gets_'
'ex_'
'ER'
'ena'
'Blóð'
'02_'
'undan_'
'ún'
'málið_'
'el'
'dýrum_'
'br'
'With_'
'bi_'
'legg'
'out'
'hæg'
'tvö_'
'tengslum_'
'conducted_'
'log'
'Listen_'
'ús'
'asked_'
'Bri'
'versus_'
'SI'
'Se'
'as'
'20'
'munn'
'ju_'
'dry_'
'arb'
'yo'
'sjúkdóm_'
'kar'
'significantly_'
'shi'
'dr'
'phone_'
'): _'
'means_'
'haven_'
'efri_'
'99_'
'overall_'
'ml'
'Ve'
'kal'
'vision_'
'fær'
'gri'
'town_'
'sínum_'
'mp'
'elska_'
'bel'
'Inn'
'við'
'st'
'lum_'
'gall'
'der'
'aldri_'
'yfirleitt_'
'ber'
'at'
'heims'
'vir'
'jó'
'jandi_'
'hn'
'næst_'
'ice_'
'man'
'lækni_'
'em_'
'vials_'
'brought_'
'krabbamein_'
'lif'
'hefir_'
'allan_'
'sjálf'
'Meðferð_'
'ume'
'hope_'
'Gott_'
' > _'
'male_'
'hring'
'gerist_'
'dog_'
'kí'
'sur'
'Gerðu_'
'provided_'
'listen_'
'huh_'
'happen_'
'groups_'
'Hvaða_'
'nun_'
'víst_'
'hrað'
'greiningu_'
'ab_'
'Ko'
'ú'
'mót'
'ο'
'jast_'
'local_'
'blöðru'
'30'
'ár'
'lyfi_'
'So'
'concentrate_'
'ce'
'Ti'
'2b_'
'lli'
'li'
'ft'
'blind_'
'alls_'
'Pla'
'DNA_'
'landi_'
'stri'
'sann'
' ('
'ple'
'thinking_'
'Ver'
'tíu_'
'þurfum_'
'RA'
'sleep_'
'At'
'vitað_'
'ura'
'gest'
'ses_'
'meta'
'disorder_'
'Vegna_'
'Sta'
'kö'
'dó'
'vin'
'mátt_'
'pro'
'22'
'par'
'rl'
'oc'
'early_'
'IS'
'insúlín'
'business_'
'ala'
'ym'
'wn_'
'one'
'ku_'
'blá'
'Þær_'
'l'
'six_'
'mæli'
'hypersensitivity_'
'efnið_'
'Sol'
'aluminium_'
'kem_'
'röð_'
'0'
'si_'
'ra'
'lut'
'aldrinum_'
'ónæmis'
'si'
'David_'
'hvorki_'
'Cor'
'töflum_'
'rix_'
'Em'
'vivo_'
'subcutaneous_'
'bu'
'uðu_'
'ad_'
'unar_'
'overdose_'
'venjulega_'
'skipta_'
'jafn'
'happy_'
'Tra'
'my'
'bed_'
'120_'
'sjálfs'
'dum_'
'dep'
'cal_'
'Jó'
'later_'
'tor'
'eiturverkunum_'
'fire_'
'sst'
'cy_'
'pin'
'Fa'
'17'
'Child_'
'ome'
'fitu'
'abnormal_'
'UR'
'ób'
'tilliti_'
'char'
'’ _'
'næsta_'
'hafið_'
'hundum_'
'spor'
'gat_'
'BI'
'hvers_'
'gp_'
'tak'
'code_'
'sért_'
'setja_'
'needed_'
'ita'
'caused_'
'son'
'líf_'
'humans_'
'heiti_'
'ys_'
'ca'
'cop'
'Stop_'
'amount_'
'rannsóknar'
'stomach_'
'immune_'
'+ _'
'sti'
'LI'
'Cal'
'An_'
'ráðlagt_'
'þann_'
'bol'
'sol'
'eb'
'dig'
'device_'
'surgery_'
'orð'
'ium_'
'forðast_'
'þinni_'
'ot_'
'RNA_'
'Af'
'increases_'
'eli'
'Hættu_'
'prolonged_'
'nef'
'sick_'
'effective_'
'Au'
'couldn_'
'bb'
'sjúklingur_'
'na'
'skil_'
'pulmonary_'
'tö'
'03'
'za'
'tvær_'
'almenn'
'sugar_'
'present_'
'hins_'
'arh'
'ðist_'
'sia_'
'kla'
'gæta_'
'carton_'
'NA'
'Common_'
'05_'
'sil'
'event_'
'especially_'
'VE'
'Drottins_'
'tin'
'samt_'
'ther_'
'nta'
'mide_'
'laun'
'búið_'
'Ke'
'Gi'
'97_'
'ster'
'konung'
'gefur_'
'action_'
'PE'
'IM'
'rus'
'kids_'
'ee'
'Vel'
'hitta_'
'discontinuation_'
'ations_'
'hit_'
'ú_'
'aukin_'
'hafin_'
'additional_'
'Hold_'
'rh'
'fyrri_'
'fertility_'
'individual_'
'fight_'
'sjálfur_'
'lor'
'dreifa_'
'ying_'
'tann'
'oo'
'Tri'
'vet'
'ingar'
'49_'
'21'
'tro'
'meðferðinni_'
'mit'
'Sorry_'
'Hefurðu_'
'se'
'dýra'
'uni'
'Hello_'
'<_'
'certain_'
'bera_'
'frjósemi_'
'ðan_'
'beautiful_'
'aðal'
'yl_'
'rík'
'oft_'
'nan'
'göngu'
'ara_'
'óp'
'mal'
'áhyggjur_'
'rg'
'Rev'
'vari'
'minnkun_'
'ara'
'Haltu_'
'ólga_'
'ris'
'náð_'
'con'
'avoid_'
'Will_'
'gen_'
'Fr'
'E1'
'Þess_'
'kt'
'instructions_'
'sak'
'oxi'
'færa_'
'toxic_'
'Human_'
'nis'
'þótt_'
'mynda'
'ants_'
'héðan_'
'contents_'
'Or_'
'Two_'
'Breezhaler_'
'37_'
'met'
'gætir_'
'box_'
'condition_'
'bea'
'upplýsingum_'
'rif'
'advice_'
'EV'
'Áhrif_'
'gefinn_'
'tvo_'
'ki'
'Hy'
'búinn_'
'undir'
'uk'
'eta'
'MA'
'maga_'
'kona_'
'hag'
'started_'
'lle'
'Látið_'
'tu'
'heyra_'
'Sj'
'Dose_'
'lt_'
'einingar_'
'dizziness_'
'BR'
'ska'
'rum_'
'ars'
'skyn'
'ah_'
'Man'
'z'
'marketing_'
'laus_'
'cut_'
'NI'
'sh'
'bs_'
'anti'
'vín'
'tveggja_'
'góð_'
'gu'
'virk'
'est'
'era'
'break_'
'York_'
'interval_'
'int'
'una'
'ía_'
'Os'
'07_'
'metin_'
'þykir_'
'disoproxil_'
'fló'
'uðum_'
'tive_'
'já_'
'ea'
'þynnu'
'growth_'
'resistance_'
'St'
'tengjast_'
'dosage_'
'den_'
'Val'
'temperature_'
'list_'
'interaction_'
'10'
'tab'
'Dar'
'tæk'
'Van'
'net'
'pat'
'ný'
'cardiac_'
'ian_'
'chi'
'VIII_'
'Geymið_'
'lyfs_'
'ley_'
'chance_'
'ato'
'tenófóvír_'
'hrein'
'sína_'
'Eli'
'lág'
'Var_'
'veiru'
'complete_'
'neutropenia_'
'Mac'
'GE'
'Flu'
'sar'
'rel'
'plus_'
'pay_'
'positive_'
'Pugh_'
'rig'
'micro'
'erfitt_'
'xo'
'kap'
'dic'
'E172_'
'34_'
'tomorrow_'
'mann'
'iron_'
'hin'
'enda_'
'crazy_'
'aukning_'
'far'
'dauða_'
'lin_'
'addition_'
'Ze'
'kle'
'+_'
'konu_'
'Es'
'vin_'
'Gre'
'ím'
'tan_'
'ste'
'frekari_'
'ýt'
'æði_'
'tið_'
'mö'
'ensím'
'deal_'
'shot_'
'ofan_'
'munu_'
'gu_'
'öndunar'
'rot'
'Bro'
'oedema_'
'lítið_'
'jafnvægi_'
'Clopidogrel_'
'mínu_'
'ega_'
'notar_'
'din'
'Kr'
'þe'
'marg'
'asa_'
'sí'
'Wa'
'Ber'
'ero'
'til'
'actually_'
'Mer'
'CYP3A_'
'út'
'tir_'
'pun'
'markaðssetningu_'
'hæfni_'
'Sal'
'ya_'
'Vir'
'stand_'
'pla'
'dögum_'
' (≥_'
'ose_'
'op'
'arnir_'
'Önnur_'
'len'
'lam'
'sá'
'prevent_'
'ofnæmisviðbrögð_'
'stig_'
'Thanks_'
'þessar_'
'sjúkdóms'
'nts_'
'feet_'
'older_'
'Co_'
'pólý'
'lest'
'cou'
'cha'
'beg'
'TA_'
'au'
'makes_'
'komin_'
'Pan'
'Hl'
'72_'
'rí'
'Heyrðu_'
'úk'
'walk_'
'units_'
'kra'
'ingar_'
'dan'
'immuno'
'Ye'
'Eða_'
'tí'
'bro'
'Grade_'
'watch_'
'rad'
'natríum'
'Dr_'
'ræn'
'metabolism_'
'varð'
'survival_'
'lk'
'Qui'
'mótefni_'
'óla'
'reconstitution_'
'pemetrexed_'
'[_'
'73_'
'let'
'hers'
'tin_'
'28'
'"?_'
'ír'
'carefully_'
'Ju'
'sti_'
'mm'
'Israel_'
'þínu_'
'vikum_'
'varlega_'
'tví'
'Sn'
'át'
'gja_'
'fra'
'break'
'jafnvel_'
'Algengar_'
'ug'
'Gæta_'
'plasmaþéttni_'
'góð'
'tol'
'stö'
'rauð'
'ráð_'
'finnur_'
'engar_'
'brjóst'
'Dis'
'unt'
'líður_'
'kan'
'it'
'eð'
'Cu'
'sne'
'neðan_'
'disc'
'44_'
'ws_'
'os_'
'lysis_'
'exactly_'
'verk'
'package_'
'fat_'
'Hr'
'verkir_'
'safe_'
'lis'
'án'
'tek'
'lit'
'Ráðlagður_'
'óþ'
'gaman_'
'everybody_'
'beint_'
'ust'
'rétt'
'nokkuð_'
'cin_'
'Insulin_'
'vorum_'
'sól'
'ATC_'
'stöðva_'
'power_'
'knows_'
'Sl'
'véla_'
'blæðingar_'
'Ban'
'rates_'
'RI'
'CO'
'Tal'
'óme'
'afraid_'
'ög'
'23'
'ttu'
'trouble_'
'pir'
'ure'
'ten_'
'ná'
'lýs'
'flo'
'boys_'
'yes_'
'Tel_'
'Dia'
'íta'
'wish_'
'samsettri_'
'marktækt_'
'true_'
'reg'
'rec'
'elderly_'
'gef'
'áhættu'
'tóku_'
'supposed_'
'ings_'
'sín_'
'mánuðir_'
'difference_'
'black_'
'Ör'
'gull'
'Insuman_'
'nóg_'
'ng'
'ata'
'08_'
'seg'
'asi'
'skipti_'
'fann_'
'dir_'
'Dad_'
'áttu_'
'munur_'
'ib_'
'lu_'
'gam'
'?"_'
'pho'
'Study_'
'FI'
'kynna_'
'hypertension_'
'þurfa_'
'róm'
'party_'
'gr'
'ger'
'Mamma_'
'His_'
'sýndu_'
'fur_'
'cyto'
'abdominal_'
'CH'
'tha'
'stöðu'
'kis'
'heima_'
'HCT_'
'fully_'
'cri'
'strong_'
'ge'
'NS'
'ögu'
'íhuga_'
'sæ'
'along_'
'ms'
'auka'
'Þakka_'
'reconstituted_'
'línu'
'fil'
'bes'
'Ben'
'hot_'
'ele'
'ect'
'Ein'
'ER_'
'probably_'
'mörk_'
'Að'
'win'
'oco'
'frekar_'
'Einn_'
'glu'
'mikil_'
'front_'
'38_'
'109_'
'miklu_'
'fín'
'augu_'
'San'
'öf'
'Þr'
'síðasta_'
'gs'
'enzymes_'
'bet'
'áh'
'sár'
'huga_'
'ath'
'tal_'
'di'
'pu'
'lf'
'ai'
'Va'
'Reg'
'*, _'
'ung'
'eigin_'
'ros'
'ete'
'ón_'
'33'
'ky_'
']_'
'55_'
'substances_'
'advised_'
'ret'
'part'
'lífs'
'lat'
'skot'
'ise_'
'fylgja_'
'monotherapy_'
'antibodies_'
'hvern_'
'Winthrop_'
'sero'
'fu'
'continue_'
'bólusetningu_'
'In'
'tryggja_'
'making_'
'kvið'
'compa'
'pt_'
'nes'
'fat'
'fam'
'Week_'
'HE'
'flokki_'
'bo'
'Con'
'itu'
'borið_'
'under'
'rað'
'merki'
'ld_'
'kur'
'ic'
'vefja'
'nor'
'app'
'act_'
'AB'
'indi'
'everyone_'
'PC'
'ged_'
'brot'
'UR_'
'upper_'
'tissue_'
'stre'
'leiddi_'
'sjá'
'mel'
'ben'
'vatns'
'excreted_'
'Put_'
'NE'
'Lan'
'rit'
'Before_'
'leik'
'cor'
'IV_'
'fjöldi_'
'rop'
'gögn_'
'book_'
'Sti'
'vír_'
'sjúklings_'
'sit_'
'eti'
'u'
'profile_'
'eld'
'ann'
'. '
'ista'
'fun_'
'fort'
'ck'
'03_'
'x1_'
'post'
'Þarna_'
'spr'
'skj'
'nótt_'
'anum_'
'Ind'
'ít'
'manni_'
'story_'
'kni'
'cap'
'HBV_'
'Dre'
'TT'
'eigum_'
'OG_'
'unknown_'
'Miss_'
'rek'
'enga_'
'%'
'vír'
'uga'
'tim'
'ngar'
'filgrastim_'
'Sil'
'06_'
'Yo'
'blanda_'
'Fer'
'valda_'
'ish_'
'fjár'
'alvarlegar_'
'ýr'
'ást'
'set'
'err'
'uc'
'lú'
'öð'
'que_'
'top_'
'super'
'öskju'
'hef'
'ban'
'sku'
'krabbameins'
'eo'
'Bet'
'tit'
'ned_'
'develop_'
'EXP_'
'worry_'
'sprautuna_'
'sal'
'þjóð'
'SA'
'sterk'
'Only_'
'tinib_'
'ere'
'QT_'
'J_'
'female_'
'einni_'
'usual_'
'ofnæmis'
'nauðsynlegt_'
'lactose_'
'Skr'
'bility_'
'Uncommon_'
'reports_'
'hús'
'hlýtur_'
'equivalent_'
'che'
'sýndi_'
'lung_'
'hurt_'
'ase'
'are'
'. (_'
'tæ'
'ration_'
'deyja_'
'straight_'
'intra'
'erfið'
'AS'
'speak_'
'oð'
'gætu_'
'ei'
'laga_'
'sást_'
'surface_'
'slu_'
'ker'
'headache_'
'ari'
'values_'
'fumarate_'
'efavirenz_'
'size_'
'dregið_'
'chest_'
'animal_'
'vef'
'rú'
'nist'
'einungis_'
'vöðva_'
'leggja_'
'nær_'
'hliðinni_'
'emtricitabine_'
'emi'
'War'
'Hins_'
'mó'
'lög'
'ili'
'eyði'
'pe'
'Bea'
'stin'
'rac'
'mismunandi_'
'Sjaldgæfar_'
'verulega_'
'protect_'
'kja_'
'dam'
'ráð'
'gja'
'asa'
'kú'
'initiation_'
'among_'
'Comb_'
'ul_'
'thank_'
'stjórn'
'cin'
'ES'
'óna'
'lita'
'art'
'Mic'
'European_'
'synd'
'lægri_'
'OF_'
'ada'
'Notið_'
'Komið_'
'brjóstagjöf_'
'Zi'
'Maður_'
'"._'
'hon'
'prom'
'ou'
'insúlín_'
'hal'
'hair_'
'fljótt_'
'dagar_'
'aukinni_'
'P450_'
'AR_'
'—_'
'vandlega_'
'Farið_'
'stundum_'
'mig'
'39_'
'ðar'
'up'
'de'
'ild'
'achieved_'
'Jú_'
'Fi'
'24'
'stopped_'
'gildi'
'rid'
'ite'
'Any_'
'00'
'læknis_'
'bar_'
'Hafðu_'
'yti'
'sma'
'outside_'
'einkenna_'
'PRO'
'NN'
'rp'
'rf'
'lungna'
'hár'
'ask'
'anaemia_'
'Hit'
'svefn'
'og'
'mini'
'agi'
'Mælt_'
'Charlie_'
' ._'
'nnu'
'lag'
'fæð'
'egg'
'dro'
'calcium_'
'Pen'
'unit_'
'ET'
'Talk_'
'MT'
'Há'
'syringes_'
'ik'
'GI'
'ler_'
'Sm'
's'
'interest'
'hy_'
'fatal_'
'bio'
'urn'
'sést_'
'needs_'
'ria_'
'bragð'
'örugg'
'viltu_'
'gang'
'Samhliða_'
'. "_'
'þroska_'
'los'
'bö'
'packs_'
'mat'
'easy_'
'somebody_'
'short_'
'peripheral_'
'neo'
'horn'
'gildum_'
'Vin'
'." _'
'hor'
'aðallega_'
'Vo'
'ua'
'kost'
'gerðist_'
'byrja_'
'breathing_'
'125_'
'sjúkdóma_'
'nti'
'chan'
'cab'
'blóð_'
'spyrja_'
'physician_'
'dýr'
'tta'
'60'
'ball_'
'Leitið_'
'áli'
'factors_'
'respiratory_'
'Einnig_'
'rti'
'late'
'erl'
'dauð'
'brain_'
'stak'
'rannsökuð_'
'linn_'
'bless'
'Kal'
'starfsemi_'
'ref'
'gastrointestinal_'
'binding_'
'US_'
'ðið_'
'bíða_'
'ark'
'Tak'
'NT'
'lungnas'
'einstaklinga_'
'Q_'
'sumum_'
'ied_'
'hat'
'ana'
'LU'
'Gr'
'From_'
'íl_'
'tengd_'
'tal'
'spar'
'lyfjafræðing_'
'gol'
'An'
'áttu'
'slag'
'klínískar_'
'hy'
'yst'
'oxide_'
'men'
'magn'
'goes_'
'Adverse_'
'reason_'
'hest'
'hen'
'em'
'anda_'
'Pri'
'IC'
'Heldurðu_'
'sm'
'mab_'
'hettu'
'dad_'
'sting'
'rol'
'estimated_'
'bráða'
'arthritis_'
'ht'
'cal'
'Tí'
'though_'
'ging_'
'ard'
'game_'
'leiðir_'
'help'
'Rea'
'só'
'sty'
'hendi_'
'liða'
'alvöru_'
'imp'
'girls_'
'enzyme_'
'defined_'
'IS_'
'ya'
'wor'
'pi_'
'mý'
'munni_'
'auga_'
'works_'
'lau'
'Virk'
'lít'
'ens'
'LO'
'ring'
'lyfjahvörfum_'
'ant'
'Cap'
'árum_'
'lm'
'dil'
'búa_'
'behind_'
'Enbrel_'
'mil'
'ire'
'ing'
'born_'
'síðustu_'
'staðfest_'
'har'
'del'
'prescribed_'
'eftirliti_'
'Not'
'KA'
'CE_'
'uns'
'bat'
'sa'
'mu'
'lag_'
'Tv'
'Sy'
'Lí'
'que'
'merg'
'klínískri_'
'Frank_'
'lac'
'ground_'
'flokkur_'
'block'
'Vit'
'útsetning_'
'vil'
'skít'
'reglu'
'plan_'
'emia_'
'country_'
'borgar'
' /_'
'tes_'
'jur'
'ama'
'whi'
'notice_'
'mono'
'hra'
'cycle_'
'blisters_'
'62_'
'vökva_'
'já'
'cover_'
'ul'
'AST_'
'43_'
'ástand_'
'sjón'
'ral_'
'pie'
'ætlar_'
'uf'
'nafn_'
'gil'
'cí'
'cy'
' $_'
'ver'
'RA_'
'ro_'
'sæt'
'rof'
'ígræðslu_'
'umbrot'
'pe_'
'32'
'leiðin'
'kalsíum'
'æ'
'nú'
'maga'
'hvít'
'bull'
'receptor_'
'milli'
'laust_'
'óte'
'pH_'
'gh_'
'Upp'
'Pabbi_'
'versnun_'
'miss_'
'cla'
'agent_'
'Mal'
'IX_'
'veita_'
'próf_'
'ner_'
'bag_'
'... ... _'
'nin_'
'flat'
'red'
'ME'
'rip'
'blóðsykurs'
'heit'
'Hor'
'ngi'
'nal_'
'maintenance_'
'fyrirliggjandi_'
'ska_'
'inndælingar'
'Is'
'Luc'
'mpi'
'wing_'
'litla_'
'IT'
'And'
'ran_'
' %) _'
'ide'
'ýru_'
'potassium_'
'filmuhúðuð_'
'THE_'
'Kv'
'Day_'
'þyngd_'
'upon_'
'ljó'
'ile'
'likely_'
'föður_'
'ey'
'ise'
'gerðir_'
'Ci'
'stra'
'peni'
'general_'
'þor'
'trú'
'married_'
'dda'
'clean_'
'CR'
'mun'
'Michael_'
'FR'
'ratio_'
'úti_'
'móður_'
'Geturðu_'
'tali'
'síðar_'
'gengið_'
'Would_'
'Hæ_'
'status_'
'Phil'
'50'
'85_'
'zumab_'
'upps'
'sko'
'inhibition_'
'ez'
'auto'
'tölu'
'lan'
'gn_'
'cons'
'vu'
'sion_'
'Ran'
'value_'
'gna'
'ess'
'died_'
'assessed_'
'ýs'
'niðurgangur_'
'missed_'
'ini_'
'hettuglasi_'
'dex'
'IA'
'ort'
'ofskömmtun_'
'alvarlegum_'
'Áfram_'
'report_'
'CT_'
'ub'
'lá'
'hop'
'ers'
'efna_'
'bí'
'veiru_'
'asta_'
'Mom_'
'tel'
'mikla_'
'hall'
'Evrópu_'
'zed_'
'nokkrum_'
'miðgildi_'
'lát'
'Mrs_'
'Mel'
'Hal'
'touch_'
'rat_'
'im_'
'ular_'
'Im'
'zól'
'samanburði_'
'SE'
'Mat'
'ök'
'osis_'
'olo'
'ded_'
'báðum_'
' ± _'
'þurft_'
'ye'
'hverja_'
'elimination_'
'End'
'vantar_'
'progression_'
'loka'
'ica'
'borð_'
'almost_'
'Eng'
'á'
'ward_'
'indicate_'
'HPV_'
'noti'
'ical_'
'ered_'
'dal'
'vac'
'presence_'
'deficiency_'
'cat'
'ised_'
'irnar_'
'daughter_'
'contraindicated_'
'bín'
'phosphate_'
'íb'
'pot'
'maðurinn_'
'drugs_'
'inf'
'dem'
'borða_'
'Herra_'
'FA'
'AI'
'yours_'
'Guðs_'
'jið_'
'id'
'augum_'
' ≥_'
'ship_'
'oxa'
'kláði_'
'frumna_'
'generally_'
'Rep'
'Dea'
'31'
'yp'
'töku_'
'ný_'
'lum'
'kom'
'ön'
'tumour_'
'kin_'
'inc'
'continued_'
'180_'
'ökk'
'sor'
'rr'
'klínísku_'
'hvarf'
'damage_'
'afl'
'lét_'
'ly'
'liti'
'kallast_'
'ðu'
'questions_'
'jo'
'hemlar_'
'ch'
'hratt_'
'ction_'
'vér_'
'fin'
'we'
'question_'
'nýja_'
'metabolites_'
'heila_'
'Hef'
'svipuð_'
'steady_'
'komst_'
'jun'
'gangi_'
']'
'hversu_'
'gin'
'breytt_'
'spi'
'Fil'
'Br'
'itr'
'Út'
'scar'
'Cli'
'... '
'ow'
'ket'
'þungun_'
'reynslu_'
'fur'
'öl'
'sagðir_'
'ue'
'initial_'
'fljót'
'fan'
'estr'
'undan'
'send_'
'mikilvægt_'
'kl'
'aðir_'
'als_'
'Sv'
'Hin'
'Cons'
'yrði_'
'sýnir_'
'jákvæð'
'vopn'
'lamivudine_'
'fið_'
'fi_'
'den'
'46_'
'monohydrate_'
'hinn_'
'Nu'
'tengist_'
'bla'
'EN'
'ét'
'ák'
'Ú'
'gre'
'emp'
'IV'
'svip'
'skýr'
'resistant_'
'/'
'taldar_'
'previously_'
'frí'
'Bra'
'Ros'
'Lyfið_'
'metabolite_'
'lity_'
'initiated_'
'On'
'é'
'skiptir_'
'pit'
'mínir_'
'leiðbeiningar_'
'fannst_'
'back'
'Zoledronic_'
'Rob'
'skert_'
'large_'
'krabbameini_'
'endo'
'egt_'
'bic'
'stöðu_'
'inject_'
'hæ'
'dom'
'dit'
'ULN_'
'Novo'
'rom'
'eðli'
'Ol'
'Heildar'
'átta_'
'sen'
'ole_'
'nic'
'ustu_'
'urð'
'sem'
'quin'
'hafir_'
'Gen'
'íði_'
'æxlis'
'áf'
'waiting_'
'med_'
'hætti_'
'AM'
'æf'
'gekk_'
'úða'
'ct'
'avi'
'Kin'
'ileg'
'fo'
'sf'
'mömmu_'
'lap'
'kin'
'ema'
'MabThera_'
'oti'
'Til'
'sho'
'lose_'
'ek_'
'Ana'
'une'
'starfs'
'sla_'
'fluid_'
'breyti'
'Gar'
'tíða'
'sy_'
'sau'
'rið_'
'rep'
'kk_'
'dar_'
'Rannsóknir_'
'Bú'
'ums'
'ika_'
'gaf_'
'æk'
'nse'
'inu'
'guð'
'mark_'
'mark'
'flu'
'Cat'
'* _'
'trans'
'skilst_'
'skammtinum_'
'rannsóknunum_'
'infants_'
'Mann'
'Johnson_'
'CT'
'war_'
'hugmynd_'
'AC'
'sér'
'staf'
'aksturs_'
'04_'
'ters_'
'nl'
'Wi'
'xí'
'klínísk_'
'heyrt_'
'fundið_'
'uh_'
'svæði_'
'sjúklingi_'
'rein'
'36'
'rang'
'hypotension_'
'couple_'
'64_'
'ut_'
'næstu_'
'lýst_'
'living_'
'gin_'
'Meðal'
'field_'
'Tom_'
'AT'
'nýr'
', '
'pur'
'lýð'
'ald'
'Cmin_'
'tract_'
'sú_'
'skerðingu_'
'sin'
'repeated_'
'piece_'
'iva'
'hús_'
'ntu'
'kemst_'
'sértæk'
'stati'
'sk'
'inndælingar_'
'ensure_'
'Inter'
'HA'
'upphaf_'
'eiginleikum_'
'mer_'
'hell'
'fasa_'
'difficulty_'
'blað'
'Make_'
'naf'
'eto'
'ek'
'Stu'
'51_'
'tveir_'
'riti'
'nað_'
'kol'
'ham'
'SP'
'Pat'
'Once_'
'gur'
'STA'
'BM'
'íum'
'komi_'
'ker_'
'blóðkorna_'
'EM'
'tti'
'Following_'
'jar_'
'exa'
'búnað'
'uppi_'
'standard_'
'rag'
'hefurðu_'
'des_'
'cs_'
'bitch_'
'Infl'
'Gil'
'swallow'
'lang'
'`_'
'þrá'
'tekin_'
'sýkingum_'
'rob'
'ljósi_'
'fæ_'
'perforat'
'besta_'
'AP'
'pos'
'líklega_'
'ipa'
'glasi'
'drop_'
'Sho'
'Ap'
'nál'
'lla'
'gögnum_'
'concern'
'SU'
'MS_'
'Finn'
'þrýsting'
'vs_'
'nge'
'UN'
'ron'
'emb'
'contain_'
'Sub'
'ved_'
'ský'
'sett_'
'færi_'
'finn_'
'depression_'
'ride_'
'allra_'
'truth_'
'strák'
'nin'
'mixed_'
'Date_'
'udin'
'lives_'
'arin'
'Cy'
'Auðvitað_'
'lit_'
'kku'
'eme'
'don'
'brenn'
'Sea'
'lusi'
'ipt'
'áð'
'pil'
'docetaxel_'
'Anti'
'remove_'
'MU'
'KI'
'law_'
'dá'
'Zentiva_'
'SK'
'Mei'
'ýls'
'sof'
'moment_'
'absorption_'
'IG'
'Hæ'
'41_'
'penn'
'hiti_'
'Ele'
'Ce'
'third_'
'ite_'
'rem'
'iti_'
'Be_'
'55'
'sím'
'score_'
'om_'
'FOR'
'Ex'
'ty'
'ost'
'Wil'
'PT'
'FOR_'
'leiki_'
'ive'
'grundvelli_'
'föl'
'clo'
'Lei'
'? -_'
'hea'
'ear'
'Mike_'
'xe'
'alive_'
'ári_'
'tín'
'telling_'
'ova'
'ahead_'
'poor_'
'loku'
'hydrochloride_'
'eas'
'bæta_'
'Ep'
'öt'
'vél'
'rugl'
'myndir_'
'asp'
'Förum_'
'náið_'
'fjarlægja_'
'daufkyrningafæð_'
'grand'
'Phase_'
'þremur_'
'tað'
'látið_'
'jón'
'hvenær_'
'wise_'
'q'
'hlé_'
'hljóð'
'All'
'roði_'
'Síðan_'
'endi'
'completely_'
'pan'
'enti'
'Cel'
'BL'
'uppr'
'hr'
'aðgerð_'
'annar_'
'ang'
'þýðir_'
'radio'
'pet'
'peginterferon_'
'haus'
'endurtekna_'
'Seg'
'Ch'
'47_'
'ður'
'seven_'
'rea'
'nga'
'dd'
'breath_'
'Mari'
'E171_'
'saf'
'rib'
'mar_'
'pó'
'arms_'
'reglulega_'
'million_'
'mb'
'falt_'
'dip'
'Ig'
'sometimes_'
'ndi'
'meter'
'leið'
'hate_'
'During_'
'ætt_'
'get'
'fólki_'
'bet_'
'heitir_'
'blóðleysi_'
'measured_'
'cry'
'brún'
'Við'
'Sim'
'Chi'
'Based_'
'40'
'lifandi_'
'han'
'but'
'ST'
'ýra_'
'save_'
'ha_'
'veterinary_'
'meti'
'kerfi_'
'hemla_'
'frá'
'coa'
'ches_'
'róp'
'mmol_'
'inte'
'deliver'
'cul'
'“'
'particularly_'
'míkróg_'
'interactions_'
'gju'
'Skil'
'STE'
'sker'
'læknis'
'kum_'
'barna'
'antic'
'act'
'sjö_'
'kvilla_'
'By_'
'vol'
'kar_'
'fræðileg'
'cti'
'az'
'attack_'
'ætt'
'æn'
'uli'
'aldur_'
'Hvenær_'
'tra_'
'skjá'
'Niðurstöður_'
'Cla'
'skammts_'
'plast'
'photo'
'Inf'
'rubber_'
'ove'
'andlit'
'Hvers_'
'Clinical_'
'þétt'
'nom'
'betri_'
'Fram'
'unn'
'járn'
'cent'
'83_'
'öldruðum_'
'vefs'
'spe'
'resulted_'
'cold_'
'May_'
'002_'
'tti_'
'tom'
'pari'
'ology_'
'mus'
'gum_'
'dysfunction_'
'Patient_'
'Fjandinn_'
'eiturverkanir_'
'aukningu_'
'Mon'
'sna'
'samr'
'reyn'
'orn'
'oe'
'lykil'
'enn'
'transf'
'hemill_'
'Kar'
'tilfellum_'
'ru_'
'od_'
'nó'
'lítil_'
'lín'
'ett'
'ON'
'ættum_'
'tilstilli_'
'plunger_'
'occurs_'
'ngs_'
'hálsi_'
'hend'
'entire_'
'bal'
'arm'
'Ev'
'ýk'
'ys'
'stat'
'eigin'
'Sam_'
'sig'
'influence_'
'fót'
'bó'
'blue_'
'íg'
'líkamanum_'
'™ _'
'isk'
'hita'
'Min'
'uppl'
'smit'
'plat'
'Ska'
'Hen'
'Halló_'
'irs_'
'ht_'
'Ali'
'umbrotsefni_'
'trúi_'
'ture_'
'stúlku'
'randi_'
'25'
'vara'
'spa'
'JA'
'GL'
'Ef'
'llo'
'impaired_'
'geymslu'
'fors'
'Sá_'
'35'
'63_'
'nic_'
'djúp'
'Ic'
'öfu'
'sister_'
'næmi_'
'ngur_'
'nda_'
'kað'
'My'
'stutt'
'ric'
'forða'
'faðir_'
'cool_'
'aðlaga_'
'oss_'
'ril'
'frequently_'
'contraception_'
'pakkning_'
'langvarandi_'
'gm'
'bos'
'DU'
'þunguð_'
'nds_'
'careful_'
'Joe_'
'Fuck_'
'Del'
'past_'
'magni_'
'funny_'
'OT'
'stí'
'sleg'
'nið_'
'lie_'
'legi'
'kunn'
'himself_'
'CYP2D6_'
'54_'
'tried_'
'san'
'off'
'TRA'
'ving_'
'sus'
'kt_'
'ject'
'hæf'
'ene'
'cm_'
'presented_'
'plastic_'
'pakkningastærðir_'
'meðallagi_'
'forg'
'dag'
'OR'
'Fl'
'nsa'
'konar_'
'hve_'
'closely_'
'previous_'
'ong'
'nýju_'
'lok_'
'leg'
'kalla_'
'hendur_'
'blo'
'Spe'
'Men'
'Ins'
'veð'
'vest'
'commonly_'
'ln'
'grei'
'fundu'
'expiry_'
'cond'
'tæki_'
'ime'
'hettuglasinu_'
'PP'
'rá'
'rma'
'conf'
'Uh_'
'Nothing_'
'No'
'þurr'
'orm'
'kenni'
'antiretroviral_'
'Humira_'
'Ham'
'yg'
'skurðaðgerð_'
'hormone_'
'ame'
'The'
'Sem_'
'pú'
'meðaltali_'
'fied_'
'antibody_'
'across_'
'tam'
'hospital_'
'Tilkynnt_'
'Sir_'
'GS_'
'.) _'
'urs'
'return_'
'mak'
'lítur_'
'iso'
'fald'
'dey'
'Mi'
'hemlum_'
'gro'
'Medicines_'
'smá_'
'gagn'
'Cou'
'tekinn_'
'llen'
'hom'
'57_'
'wea'
'scr'
'engi'
'dine_'
'air'
'ON_'
'vind'
'róleg'
'reið'
'police_'
'platelet_'
'ofn'
'kva'
'gerast_'
'beit'
'Ris'
'mæla_'
'grip'
'erg'
'þreyta_'
'öndun_'
'Þv'
'identified_'
'hefðir_'
'gul'
'gan'
'words_'
'weekly_'
'ssion_'
'ff_'
'samanburðar'
'res_'
'pass_'
'nal'
'ína'
'target_'
'ogen'
'mol'
'happens_'
'ðun'
'hel'
'bið'
'oz'
'kok'
'Ac'
'tte'
'mínútum_'
'exe'
'esti'
'board_'
'trip'
'sað'
'mpa'
'hypoglycaemia_'
'haemorrhage_'
'esc'
'answer_'
'Sí'
'Sæll_'
'Resp'
'Prevenar_'
'Our_'
'AND_'
'viral_'
'sonur_'
'lað'
'exp'
'api'
'standa_'
'phi'
'imi'
'fylgiseðil'
'Pal'
'lt'
'legs_'
'however_'
'frumur_'
'bbi'
'Bor'
'Am'
'minnkað'
'HbA1c_'
'breytt'
'ball'
'val_'
'pol'
'domi'
'sýking_'
'sjó'
'sitt_'
'ca_'
'appro'
'TO'
'Since_'
'þeg'
'sc'
'rapid_'
'onal_'
'nýru_'
'limi'
': +_'
','
'nógu_'
'exc'
'Ras'
'NU'
'stigi_'
'meal_'
'eys'
'svið'
'ope'
'induction_'
'enia_'
'takk_'
'statistically_'
'pic'
'efna'
'Aðeins_'
'ull'
'svar'
'líki'
'bl'
'þyr'
'umb'
'stjóri_'
'rúmmál_'
'pant'
'góða_'
'deild'
'brjóstamjólk_'
'tú'
'annaðhvort_'
'Þessar_'
'ord'
'mm3_'
'dys'
'dance_'
'Om'
'roo'
'require_'
'container_'
'Neo'
'búin_'
'augnl'
'Sandoz_'
'værir_'
'skemmd'
'pick_'
'endpoint_'
'dregur_'
'counts_'
'Heil'
'Atripla_'
'pyr'
'kna'
'hámarks'
'Ætlarðu_'
'ysi'
'mmól_'
'herbergi'
'aci'
'sni'
'skemmt'
'kjölfar_'
'húsið_'
'husband_'
'dagur_'
'combined_'
'úa'
'whatever_'
'vökva'
'graf'
'Ske'
'tta_'
'trí'
'náði_'
'nokkur_'
'höfuðverkur_'
'byggð'
'CI'
'sle'
'boð'
'Herceptin_'
'Fle'
'AG'
'ðl'
'sug'
'sad'
'fö'
'sch'
'samt'
'samsett'
'hý'
'hvarfefni_'
'Ky'
'67_'
'regular_'
'rum'
'others_'
'nci'
'example_'
'bba'
'aca'
'Takið_'
'Fylgjast_'
'æðum_'
'rab'
'measures_'
'lengd_'
'kit'
'karl'
'inflammatory_'
'ferða'
'Thi'
'Syn'
'Hérna_'
'nes_'
'meðhöndlun_'
'AV'
'ups'
'minni'
'ld'
'hinum_'
'described_'
'unin'
'thrombo'
'throat_'
'marktæk_'
'gó'
'ba_'
'Bl'
'ubi'
'sprautunni_'
'running_'
'ph_'
'hringja_'
'ue_'
'ttu_'
'Jes'
'ule'
'sár_'
'sjón_'
'levodopa_'
'bin'
'band'
'þúsund_'
'zon'
'stage_'
'samf'
'CYP_'
'ættu_'
'reli'
'hjartabilun_'
'fum_'
'aw'
'stur_'
'skilj'
'saman'
'onset_'
'milliverkanir_'
'merkt'
'mental_'
'infl'
'hund'
'abi'
'Þannig_'
'slæm'
'rörlykju'
'bir'
'stopper_'
'res'
'engan_'
'58_'
'krabbameinslyfjameðferð_'
'geym'
'ds'
'anymore_'
'Sæ'
'Sec'
'Bio'
'switch'
'slíkt_'
'shoot_'
'reach_'
'parameters_'
'ká'
'dependent_'
'Verð'
'úm'
'ósk'
'líkamsþyngd_'
'honey_'
'Sýnt_'
'nýlega_'
'ico'
'glí'
'evening_'
'Cas'
'27'
'vaccines_'
'tle_'
'sál'
'dom_'
'blett'
'Mc'
'áv'
'tím'
'stupid_'
'mala'
'frumum_'
'ane'
'ðri_'
'spenn'
'sign_'
'rte'
'kyr'
'fylgir_'
'George_'
'þrýst'
'ólí'
'ógl'
'segarek'
'pt'
'jú'
'das'
'Xa'
'Check_'
'útv'
'stun'
'sendi_'
'metabolised_'
'sons_'
'með'
'horfi'
'row_'
'prop'
'laboratory_'
'insúlíni_'
'Win'
'MR'
'Far'
'Docetaxel_'
'ō'
'mani'
'lki'
'klíníska_'
'colourless_'
'ake'
'advanced_'
'94_'
'tight'
'reynsla_'
'næstum_'
'minnst_'
'lífshættuleg'
'hreyfi'
'elle'
'anleg'
'White_'
'Cl'
'sco'
'ress'
'markaðsleyfis_'
'giving_'
'tímann_'
'poli'
'aðstæður_'
'Ale'
'vas'
'sg'
'samanburðarrannsóknum_'
'improvement_'
'gið_'
'cre'
'SO'
'news_'
'framan_'
'affected_'
'37'
'trust_'
'himnu'
'bíl_'
'styrk_'
'line'
'Spi'
'áfylltri_'
'vef_'
'tib'
'dýr_'
'dæm'
'bus'
'Us'
'Mil'
'90'
'þrí'
'svart'
'lið'
'deli'
'Nota_'
'íó'
'sep'
'multi'
'Rem'
'PI'
'tað_'
'kaf'
'inde'
'Ent'
' >_'
' %'
'íu'
'uls'
'temp'
'fyrningardagsetningu_'
'vern'
'skilið_'
'ea_'
'%)_'
'uen'
'ningu_'
'jan'
'greind'
'Gl'
'Captain_'
'supplied_'
'sten'
'gras'
'concomitantly_'
'mánuðum_'
'kæli_'
'iði'
'ine'
'distribution_'
'Dep'
'tea'
'setning'
'cisplatin_'
'several_'
'pump_'
'arr'
'Man_'
'W_'
'Sko'
'RES'
'Mont'
'Lýsing_'
'veruleg'
'kunna_'
'grade_'
'festi'
'eh'
'003_'
'irin'
'hang'
'bath'
'Ald'
'veri'
'ow_'
'cie'
'birt'
'þriggja_'
'vent'
'ole'
'einst'
'Alvarleg'
'é_'
'vald'
'skulum_'
'rei'
'ident'
'bis'
'Alm'
'ósa'
'skilja_'
'mæði_'
'erð_'
'Sure_'
'Art'
'top'
'quite_'
'gö'
'gy'
'dinner_'
'bát'
'account_'
'Ag'
'ætlaði_'
'sök'
'stur'
'ngum_'
'lia'
'eal_'
'changed_'
'angi'
'alan'
'þoli'
'ös'
'íf'
'hydroxy'
'bólgu'
'attention_'
'Mun'
'Hyper'
'sku_'
'iv'
'FE'
'umst_'
'sef'
'nem'
'HO'
'Eru_'
'ínu'
'till_'
'rak'
'pres'
'eðlileg_'
'ative_'
'Samt'
'skip'
'pti'
'king'
'harm'
'erin'
'entia'
'rv'
'lyfjahvarfa'
'dur'
'aðil'
'Vö'
'tid'
'sams'
'Tru'
'Star'
'þekki_'
'pneumo'
'enc'
'acti'
'æði'
'sterile_'
'sac'
'NO'
'ven_'
'sjúkdómur_'
'kre'
'gir'
'Mad'
'Any'
'wl'
'lö'
'asti'
'áhrifa_'
'weakness_'
'verð'
'tch_'
'laus'
'UM_'
'69_'
'04'
'uð'
'spo'
'rý'
'háþrýsting'
'damn_'
'CD'
'sense_'
'ph'
'Fyrir'
'ðs'
'www_'
'stríð'
'health_'
'gleymist_'
'Hand'
'Eitt_'
'26'
'win_'
'slá'
'anybody_'
'Res'
'Pr'
'Caution_'
'stated_'
'samh'
'lur'
'lj'
'hne'
'hjúkrunarfræðing'
'bundið_'
'EL'
'threatening_'
'meltingarvegi_'
'skor'
'sjúklinga'
'often_'
'kept_'
'fro'
'ener'
'óst'
'læknir_'
'hjálp_'
'einhverjum_'
'anna'
'Hvít'
'vandræð'
'ræð'
'ote'
'megin_'
'cas'
'... - _'
'ents_'
'blæðing_'
'ax'
'sin_'
'banvæn'
'augl'
'Humalog_'
'Lyfjahvörf_'
'Dag'
'),_'
'öflug'
'rj'
'fækkun_'
'nota'
'monitor_'
'lid'
'erk'
'collect'
'Fyr'
'Actavis_'
'**'
'ps'
'pn'
'nut'
'new'
'ak_'
'rna'
'lady_'
'þjón'
'virkt_'
'tend'
'svolítið_'
'rey'
'nas'
'myndu'
'klukkustundir_'
'júkdóm'
'gí'
'eno'
'cia'
'betra_'
'Jesús_'
'va'
'urr'
'fou'
'fni_'
'enter'
'endan'
'drekka_'
'deg'
'confirmed_'
'Pol'
'wear_'
'reduc'
'nál_'
'markað'
'lík'
'intended_'
'herm'
'ðsl'
'Ís'
'sær'
'ráðlögð_'
'pill'
'pabba_'
'methyl'
'hug_'
'erythro'
'OL'
'59_'
'tölfræðilega_'
'negative_'
'lækkað'
'decide_'
'daglega_'
'Mod'
'seconds_'
'oph'
'naðar'
'het'
'Exp'
'Comm'
'resulting_'
'gegn'
'eig'
'breyting_'
'atri'
'Ov'
'Car'
'væn'
'meina_'
'fun'
'004_'
'öku'
'sú'
'rd_'
'komum_'
'blind'
'application_'
'Mag'
'ðin'
'ákv'
'stand'
'sjúkdóms_'
'liquid_'
'ight_'
'háls'
'arti'
'Gle'
'Data_'
'þungu'
'óska'
'sín'
'office_'
'mom_'
'hærra_'
'hin_'
'Lyf_'
'port'
'phospho'
'lengri_'
'leiðbeiningum_'
'kven'
'gan_'
'bru'
'ía'
'types_'
'sundl_'
'opening_'
'ley'
'kalíum'
'hre'
'beat_'
'abl'
'kammt'
'innrennslisþykkni_'
'fal'
'dat'
'Par'
'öðu'
'öm'
'sprautur_'
'skó'
'mba'
'las'
'Z_'
'Nice_'
'...._'
'ult'
'kennd'
'aza'
'Kra'
'Full'
'Av'
'some'
'sek'
'glúkósa_'
'Christ_'
'0001_'
'desi'
'tube_'
'rétti'
'laga'
'gau'
'ddu_'
'Barn'
'ýru'
'tík'
'sr'
'ked_'
'ingja'
'host'
'epti'
'earth_'
'dálítið_'
'auga'
'afa'
'TRI'
'étt'
'rass'
'peri'
'notaður_'
'mes'
'líkar_'
'grí'
'cally_'
'Tem'
'sme'
'round_'
'ningu'
'flokk'
'aukaverkanirnar_'
'assessment_'
'amp'
'Send'
'Opti'
'prest'
'pli'
'gal'
'auki_'
'Mas'
'xy'
'stroke_'
'Pregabalin_'
'Marg'
'útf'
'ÐI'
'sum_'
'sic'
'ges_'
'fentan'
'aff'
'truflanir_'
'kju'
'ibr'
'hm'
'29'
' ..._'
'vax'
'prefer'
'pac'
'eit'
'svei'
'nur'
'lan_'
'ism_'
'– _'
'ónæmi_'
'slo'
'respect_'
'pull_'
'nsi'
'lyfjafræðingi_'
'lof'
'kró'
'gun'
'glæ'
'except_'
'ST_'
'Ei'
'örsjaldan_'
'too'
'ping_'
'lakt'
'hes_'
'fugl'
'buy_'
'Fj'
'AL_'
'Ð'
'urinary_'
'nb'
'háttar_'
'hamla'
'engu_'
'aren_'
'amy'
'Fó'
'hvíta'
'biv'
'visi'
'tired_'
'tic'
'milliverkunum_'
'leysir_'
'jöf_'
'hum'
'fræði'
'burð'
'05'
'vill'
'rétta_'
'próf'
'procedure_'
'manage'
'ile_'
'hypert'
'acting_'
'Tor'
'MA_'
'Einhver_'
'von_'
'thy'
'metýl'
'iss'
'hvor'
'fore'
'ate'
'adjusted_'
'Los'
'Fin'
'íp'
'whom_'
'wee'
'vænt'
'tals'
'passa'
'vitum_'
'uncommon_'
'const'
'vera'
'síð'
'reyk'
'lak'
'grun'
'gleð'
'bæ'
'öld_'
'spin'
'fullnægjandi_'
'efa'
'alu'
'93_'
'76_'
'opna_'
'neck_'
'dasa'
'alis'
'Stað'
'Il'
'stærð_'
'secondary_'
'ký'
'jór'
'edi'
'útskilnað'
'tilfelli_'
'rou'
'rannsakað_'
'dialysis_'
'adequate_'
'Peter_'
'örðu'
'æl'
'virk_'
'tig'
'síðu'
'spá'
'sound_'
'ida'
'hydro'
'clu'
'asse'
'Zo'
'Bre'
'"'
'þre'
'ux'
'tug'
'talað_'
'pioglitazone_'
'lip'
'god'
'excluded_'
'cav'
'cardiovascular_'
'bá'
'ating_'
'Trans'
'CP'
'hettuglös_'
'drag'
'PO'
'Doc'
'létt'
'fish_'
'anc'
'160_'
'náð'
'moving_'
'isti'
'einhýdrat_'
'care'
'avoided_'
'Out'
'Injection_'
'ána'
'tos'
'svi'
'sand'
'mist'
'manns_'
'ish'
'fáanleg'
'deep_'
'PL'
'CYP2C9_'
'völ'
'upt'
'transient_'
'slightly_'
'see'
'ose'
'opathy_'
'númer_'
'light'
'hrygg'
'electro'
'cross_'
'Za'
'Sel'
'Pakkningar_'
'Minn'
'position_'
'nat'
'less'
'lem'
'bjó'
'bakteríu'
'leikur_'
'hid'
'gerum_'
'fari_'
'ands'
'92_'
'yfirborð'
'step_'
'rðu'
'particular_'
'osa'
'nose_'
'nie_'
'máltíð_'
'Henry_'
'Arm'
'ðurinn_'
'prove'
'impo'
'gold_'
'Vie'
'Stel'
'Haldið_'
'tek_'
'stór_'
'inga'
'button_'
'PH'
'EF'
'78_'
'þýði'
'vegi'
'reached_'
'horfa_'
'getnaðarvörn_'
'Got_'
'Ger'
'window_'
'py'
'gler'
'eyr'
'Bin'
'samantekt_'
'niðurstöðum_'
'dear_'
'cto'
'Sur'
'Eg'
'volunteers_'
'subsequent_'
'líkams'
'lætur_'
'lys'
'loft'
'karlm'
'illkynja_'
'ign_'
'Wal'
'Sla'
'slow_'
'ofs'
'legum_'
'ids_'
'ava'
'útskýr'
'wai'
'usa'
'tis'
'shed_'
'organ_'
'gent'
'dea'
'whose_'
'plástur'
'mma'
'mid'
'llu'
'lact'
'gga'
'extra'
'drep_'
'Never_'
'íri_'
'stal'
'rod'
'reveal'
'lev'
'kenna_'
'ities_'
'fja'
'bun'
'aga'
'Rap'
'íðs_'
'wall_'
'uleg'
'majority_'
'konungur_'
'hættu'
'heyrði_'
'direct_'
'amleg'
'ACE_'
'sation_'
'ped_'
'hlý'
'atr'
'Pap'
'ute_'
'ugh'
'ppi'
'neit'
'flutt'
'Pop'
'skoða_'
'pakka'
'fræn'
'fit'
'brey'
'Só'
'Ph'
'First_'
'gleym'
'existing_'
'bílinn_'
'brjósta'
'tilgreind_'
'thu'
'suggest_'
'staða'
'olli_'
'ofi'
'ming_'
'bye_'
'vinstri_'
'pum_'
'io'
'boo'
'aliskiren_'
'adi'
'Liprolog_'
'Lar'
'CML_'
'%_'
'ér'
'shut_'
'rúm'
'ríð'
'lingu'
'connect'
'Act'
'tem'
'rra'
'mf'
'lix'
'hör'
'feed_'
'Excuse_'
'umab_'
'tón'
'thor'
'rse'
'ppu'
'material_'
'finni'
'disco'
'Stay_'
'Neu'
'Lin'
'Hætta_'
'lesi'
'ig_'
'hver'
'arl'
'Eri'
'öflur_'
'yrk'
'veru'
'om'
'66_'
'ira'
'Meta'
'By'
'ō_'
'upphafs'
'remain'
'nálægt_'
'nervous_'
'meg'
'een_'
'bróðir_'
'blóðflagna_'
'Mik'
'shar'
'mt'
'járnoxíð_'
'fell'
'cro'
'ax_'
'aro'
'alkal'
'Sid'
'Paul_'
'Fre'
'Don'
'Des'
'Ble'
'ted'
'mina'
'flokka'
'faci'
'cartridge_'
'slím'
'patch_'
'io_'
'Lyfja'
'Cha'
'Öryggi_'
'inten'
'eins'
'ain'
'Three_'
'''
'who'
'vör'
'vélin'
'takes_'
'spen'
'fjö'
'Still'
'Son'
'upphafsskammt'
'tun'
'transplant_'
'run'
'oma'
'Þó_'
'warfarin_'
'seve'
'lagt_'
'filt'
'Rú'
' (< _'
'þin'
'fir'
'Fu'
'88_'
'53_'
'team_'
'sd'
'hip_'
'ets_'
'correct_'
'Tha'
'St_'
'ycin_'
'pas'
'mode'
'load_'
'græn'
'disa'
'andliti_'
'YS'
'Agency_'
'húsinu_'
'Ren'
'tn'
'tip_'
'lágu'
'lis_'
'hjálpar_'
'fyrir'
'Carl'
'CC'
'Boo'
'íða'
'tia'
'ti'
'ther'
'inco'
'healthcare_'
'fosfat_'
'fosfat'
'clot'
'Góð'
'tilb'
'skoðun_'
'náðu_'
'near_'
'kjaft'
'höf'
'Str'
'Harry_'
'77_'
'skjóta_'
'nám'
'jól'
'imu'
'SC'
'70'
'vali'
'ney_'
'lun'
'klór'
'Jer'
'Frá_'
'Bon'
'tacrolimus_'
'professional_'
'glo'
'Tim'
'QTc_'
'Gæti'
'EI'
'wis'
'viðbótar_'
'sali'
'idi'
'CYP1A2_'
'þurfti_'
'ðin_'
'vein_'
'sver'
'subject_'
'pen'
'lant'
'atí'
'61_'
'teri'
'stj'
'prof'
'Stan'
'Most_'
'!'
'viðb'
'unnið_'
'nö'
'nty_'
'mos'
'líkamsþyngdar_'
'lamivúdín'
'komdu_'
'hlið_'
'haemoglobin_'
'efavírenz_'
'dap'
'bað_'
'arinnar_'
'Barr'
'xu'
'und_'
'turned_'
'lta'
'kynni'
'ill_'
'gel_'
'bjóða_'
'Inst'
'...?_'
'ópr'
'mati_'
'ísk'
'hv'
'fti'
'differences_'
'æt'
'mea'
'lýkur_'
'ipi'
'horf'
'fæðingu_'
'cc'
'aka'
'Sco'
')) _'
'leaving_'
'hýdroxý'
'People_'
'END'
'Concomitant_'
'skipt_'
'seink'
'nýrnabilun_'
'ik_'
'hent'
'fræðing'
'final_'
'alli'
'With'
'VA'
'Ten'
'CSF_'
'íma'
'tures_'
'nefnd'
'anyway_'
'síman'
'nag'
'induced_'
'foetal_'
'firm'
'abs'
'Ribavirin_'
'Pemetrexed_'
'FYRIR_'
'AF_'
'91_'
'kel'
'amín'
'Eddie_'
'Ari'
'84'
'ykur'
'pers'
'responsible_'
'músum_'
'lb'
'intestinal_'
'acco'
'Tro'
'Those_'
'MB'
'Ben_'
'pto'
'nm'
'munt_'
'hro'
'hil'
'Plus_'
'sví'
'provide_'
'pl'
'opnu'
'nda'
'iða'
'Bj'
'79_'
'severity_'
'rle'
'ac_'
'Sve'
'MED'
'). _'
'tolera'
'sýklalyf'
'syst'
'storage_'
'lifa_'
'kve'
'jót'
'Hugsa'
'yc'
'tókst_'
'staðfest'
'parents_'
'ore'
'lesa_'
'enz'
'dy'
'viti_'
'usi'
'stöðva'
'rate'
'líta_'
'færðu_'
'fic'
'embryo'
'Lea'
'King_'
'útiloka_'
'ðing'
'risks_'
'læk'
'ks'
'kenn'
'bjúgur_'
'afr'
'accept'
'xima'
'lenging'
'komist_'
'determined_'
'bær'
'hægri_'
'Cro'
'BC'
'ód'
'qua'
'deb'
'ösku'
'park'
'mous'
'fengi'
'throw_'
'rannsókna_'
'kær'
'hraða_'
'dan_'
'consistent_'
'bíl'
'ág'
'visual_'
'peninga_'
'mp_'
'ito'
'hverri_'
'esta'
'ert'
'ela'
'current_'
'ates_'
'Sum'
'Sign'
'þunglyndi_'
'sv'
'still'
'slemb'
'gene'
'dist'
'cate'
'virkja'
'potentially_'
'pig'
'inflúensu'
'hettuglasið_'
'ennþá_'
'clopidogrel_'
'ay_'
'authorisation_'
'artan'
'µ'
'xt'
'vítamín'
'schedule_'
'neinar_'
'ans'
'þroti_'
'tvísóproxíl_'
'stan'
'snúa_'
'seinna_'
'nær'
'höndum_'
'http_'
'dioxide_'
'SEM_'
'Niður'
'Gri'
'Endur'
'://_'
'prot'
'nleg'
'kaup'
'sveit'
'obtained_'
'nast'
'UG'
'Sen'
'Reco'
'HD'
'árás'
'rist'
'promise_'
'nákvæm'
'll'
'lf_'
'imatinib_'
'hé'
'ape'
'Place'
'svara_'
'ráðlagða'
'næm'
'nokkra_'
'mát'
'læknisins_'
'injected_'
'hey_'
'ced_'
'atic_'
'EP'
'Dave_'
'rain'
'ninn_'
'nf'
'hinni_'
'express'
'Which_'
'zy'
'eil'
'89_'
'ution_'
'slæ'
'psoriasis_'
'ldi'
'kka_'
'clean'
'ID'
'prec'
'mia_'
'meeting_'
'keep'
'hækka'
'hugsað'
'hold'
'Gro'
'Ey'
'Even_'
'-'
'þakka_'
'starfi'
'operati'
'nor_'
'Len'
'IR'
'Always_'
'vægi'
'ratiopharm_'
'pur_'
'osteo'
'lon_'
'influenza_'
'hlut'
'hjálpað_'
'frequent_'
'ekk'
'aðrir_'
'Fri'
'ulation_'
'stay'
'refrigerator_'
'morð'
'matur'
'lögreglu'
'Mill'
'æs'
'worse_'
'sínu_'
'manna'
'klukkan_'
'injury_'
'félagi_'
'erat'
'eið'
'efninu_'
'Could_'
'Bat'
'vöðva'
'sækja_'
'scan'
'rat'
'precautions_'
'omi'
'mie'
'im'
'Set'
'jafna'
'byrjar_'
'blóðkorn'
'vert'
'tapa'
'lifrars'
'ingun'
'gn'
'eve'
'dee'
'auk_'
'athuga_'
'amine_'
'Stra'
'EG'
'útliti_'
'stefn'
'ræ'
'Rare_'
'Miðgildi_'
'Indi'
'‘_'
'sinn'
'ntin'
'naut'
'lær'
'joint_'
'fjandans_'
'endapunkt'
'dox'
'Mið'
'Mix'
'rst'
'recently_'
'lek'
'hefðu'
'algjör'
'CYP2C19_'
'svín'
'plant'
'lungum_'
'lot'
'erna'
'company_'
'alter'
'Athug'
'óð'
'varúðarr'
'varan'
'tla'
'ræðileg'
'refr'
'pö'
'junum_'
'Everything_'
'þv'
'útl'
'staðinn_'
'skömmtun_'
'sea_'
'mb_'
'gly'
'fóru_'
'strik'
'mari'
'looked_'
'here'
'correct'
'cholesterol_'
'bóluefnis'
'prótein_'
'Wor'
'Rapid_'
'él'
'varúð_'
'ual_'
'trufla'
'sáust_'
'mánaðar'
'agnir_'
'American_'
'write_'
'wors'
'tors_'
'skrifa_'
'irre'
'hart_'
'fylg'
'Klínísk'
'roni'
'rie'
'physical_'
'meðferðars'
'lifun_'
'glý'
'dö'
'deil'
'aver'
'arp'
'SL'
'Leyfðu_'
'vik'
'sund'
'stöðug'
'pró'
'oftar_'
'nde'
'míns_'
'mou'
'hræddur_'
'hald'
'gle'
'dæmis_'
'dyr'
'dreng'
'dh'
'RV'
'Heim'
'Great_'
'-, _'
'rol_'
'myndin'
'myelo'
'legan_'
'cour'
'av'
'Drottni_'
'Blood_'
'.. _'
' (%)_'
'“._'
'þrjú_'
'prepared_'
'borga_'
'blóðflagnafæð_'
'bent'
'Sit'
'Bos'
'svör'
'skipti'
'ron_'
'coat'
'ID_'
'86_'
'ula'
'tilraun'
'sirolimus_'
'senda_'
'retin'
'niðurgang'
'marrow_'
'láti'
'kka'
'Imp'
'sul'
'squa'
'segirðu_'
'pakkningu'
'gift'
'examin'
'broti'
'Sus'
'Ætl'
'stick_'
'self_'
'ráðl'
'pr'
'pheno'
'ner'
'litlu_'
'ggi'
'consist'
'byggja'
'Jan'
'vot'
'rid_'
'place'
'management_'
'itching_'
'has'
'borði'
'G3_'
'ædd'
'slyf'
'omy'
'magnesíum'
'jal'
'ese_'
'Hjálpa'
'Com'
'semi'
'pennan'
'orti'
'miður_'
'haf'
'burtu_'
'algeng'
'Bud'
'úlín'
'stru'
'morgun'
'fact_'
'eff'
'Hafið_'
'þíns_'
'þeirri_'
'næ'
'kun_'
'ib'
'excretion_'
'drykk_'
'ED'
'Can'
'model'
'lg'
'kir'
'ifica'
'hjálp'
'för_'
'fli'
'bók_'
'Hví_'
'Bæ'
'sverð'
'stored_'
'repa'
'perfect_'
'laktósa_'
'j'
'Me'
'Drag'
'BS'
'tics_'
'stu'
'neikvæð'
'lyfjafræðileg'
'inni'
'hö'
'glas_'
'angiotensin_'
'vei'
'rítónavír'
'medi'
'mbi'
'mai'
'lla_'
'Matt'
'Kat'
'Ji'
'68_'
'kn'
'kláða_'
'hu'
'hjól'
'frábært_'
'fl'
'Ret'
'NC'
'M1'
'Hr_'
'Acc'
'sli_'
'serve'
'odd'
'music_'
'fulltrú'
'fatigue_'
'bestu_'
'ang_'
'þáttt'
'viljum_'
'skugga_'
'sj'
'ries_'
'represent'
'lóríð'
'hyl'
'figure_'
'Nat'
'mála_'
'fífl'
'bæt'
'aukaverkun_'
'örv'
'select'
'seizures_'
'hard'
'ema_'
'ave'
'prót'
'minnkað_'
'langvinna_'
'gala'
'ably_'
'Truvada_'
'Stevens_'
'Ann'
'íð'
'vít'
'unglinga'
'skul'
'skrif'
'improve'
'hle'
'eu_'
'dú'
'aðferð'
'ages_'
'IP'
'Does_'
'úru'
'tiv'
'regard'
'methotrexate_'
'hægð'
'færi'
'sting_'
'haemato'
'grá'
'Summary_'
'Flo'
'ávísað_'
'skóla'
'pu_'
'lí'
'Part'
'100'
'viku'
'uct'
'fú'
'fórn'
'ferli_'
'dream_'
'retr'
'carry_'
'bili'
'= _'
'87_'
'tche'
'gon_'
'erfða'
'emic_'
'diseases_'
'dali_'
'Nobody_'
'Billy_'
'æxlun_'
'ætlað'
'worth_'
'upplýsinga_'
'uh'
'poo'
'nákvæmlega_'
'fest'
'faste'
'eðlilega_'
'erv'
'conv'
'barna_'
'arfgerð_'
'Hospira_'
'ves'
'tilf'
'thrombocytopenia_'
'ngin_'
'metið_'
'kick'
'imag'
'brot_'
'LV'
'Cho'
'CON'
'óþekkt'
'sey'
'sea'
'relative_'
'leysa_'
'ghte'
'fisk'
'eldi'
'driving_'
'cobicistat_'
'abo'
'Settu_'
'Dr'
'ved'
'und'
'tho'
'snemma_'
'nýtt_'
'det'
'bound_'
'andr'
'abacavír'
'Non_'
'Ku'
'ING_'
'52'
'2C'
'skipu'
'rit_'
'miða'
'marktæka'
'konan_'
'kinn_'
'greina_'
'geturðu_'
'evi'
'AZ'
'vinir_'
'upphafsgildi_'
'takmarka'
'supp'
'skál'
'sjúklingurinn_'
'mix'
'legu_'
'fáum_'
'bundn'
'apa'
'PE_'
'CE'
'station_'
'reti'
'ora'
'ofan'
'hreins'
'hormóna'
'brad'
'Ven'
'æmi'
'ákveðin'
'uppfær'
'ston'
'reproductive_'
'non'
'itin'
'Of'
'Hö'
'Ear'
'vö'
'vegg'
'ssa'
'skýrslu'
'reta'
'primarily_'
'lungnab'
'inh'
'developed_'
'bioavailability_'
'ttin'
'tró'
'path'
'lati'
'grunngildi_'
'Something_'
'LD'
'skammturinn_'
'proteins_'
'playing_'
'lad'
'jarðar'
'hát'
'arnar_'
'Olanzapine_'
'Hvor'
'Bur'
'vins'
'plane_'
'outer_'
'kj'
'hættuleg'
'endur_'
'PREZISTA_'
'ND'
'Fær'
'Fá'
'ávísa'
'vitl'
'upph'
'allow_'
'LL'
'Ia'
'tól'
'mínar_'
'líffæra'
'liz'
'leiðinni_'
'kæ'
'gðu'
'greiningar'
'gjöra_'
'rta'
'mber'
'enta'
'eir'
'dið_'
'ado'
'Sá'
'Sat'
'ðis'
'tongue_'
'niðri_'
'mótefna'
'líff'
'ious_'
'gran'
'bílnum_'
'asking_'
'önd'
'ton'
'samein'
'nit'
'lík_'
'göm'
'efnis'
'coli'
'antid'
'Time_'
'Inc'
'FL'
'Ext'
'1a_'
'tv'
'suit'
'nk_'
'involved_'
'glös'
'gen'
'tölvu'
'thin'
'opi'
'langvinn'
'ility_'
'hazard_'
'ekin'
'einnota_'
'cyclo'
'Brea'
'Ara'
'tum'
'stig'
'narh'
'liðið_'
'kki_'
'exposed_'
'dreif'
'cet'
'ante'
'amí'
'ache'
'Ps'
'82_'
'nán'
'leu'
'ice'
'hugsanleg'
'Sams'
'ðju'
'tip'
'oid'
'oce'
'meðferðina_'
'last'
'implant'
'cycles_'
'atazanavir_'
'Tou'
'Alu'
'tow'
'spl'
'neg'
'mikill_'
'ior_'
'dark_'
'cid'
'bab'
'þarfnast_'
'voice_'
'spri'
'sm_'
'mú'
'meðf'
'itt'
'fyrirbyggjandi_'
'choice_'
'cham'
'Fjöl'
'ógen'
'virkar_'
'sögðu_'
'ssa_'
'scared_'
'nto'
'nst'
'nce'
'lind'
'birth_'
'005_'
'viðvarandi_'
'veirum'
'hleyp'
'helming'
'hap'
'eilíf'
'dd_'
'SS_'
'öldi'
'ópa'
'zing_'
'undi'
'tai'
'standing_'
'sfa'
'hydroxide_'
'head'
'gð'
'elo'
'eight_'
'Rí'
'Meg'
'General_'
'picture_'
'líkur_'
'læt_'
'hönd_'
'geo'
'Health'
'ávinning'
'pharmac'
'ota'
'hópu'
'hækkað'
'frels'
'alt'
'Gefa_'
'42'
'ýla'
'tna'
'rir_'
'ram_'
'leading_'
'holi'
'corticosteroids_'
'bjarga_'
'Sö'
'Mart'
'áfyllt_'
'user_'
'teg'
'ritonaviri_'
'mænu'
'blóðsykursfall'
'Sup'
'Remove_'
'Rannsókn_'
'ótrúleg'
'seems_'
'recombinant_'
'iðu'
'interferón'
'háð_'
'gagna'
'ement_'
'doc'
'Stat'
'Move_'
'KO'
'væm'
'vona_'
'thic'
'innsigl'
'ilin'
'closed_'
'camp'
'calc'
'ardi'
'abacavir_'
'Park'
'tóm'
'ting'
'snerti'
'slagæð'
'skoti'
'reiðu'
'ok'
'jafngildir_'
'fill_'
'exercised_'
'diluted_'
'clarit'
'Set_'
'RAD'
'74_'
'óvin'
'von'
'strength_'
'rk_'
'ox'
'orally_'
'ndin'
'glæp'
'detect'
'azol'
'altæk'
'Gal'
'Áttu_'
'sýru_'
'neuropathy_'
'loc'
'heima'
'blæðingu_'
'Store_'
'IL_'
'Every_'
'?”'
'tákn'
'sið_'
'nýt'
'mon_'
'genotype_'
'gaur'
'fed'
'abnormalities_'
'Dau'
'ásta'
'truflun_'
'hluta'
'fet'
'catch_'
'card_'
'appetite_'
'appear_'
'óeðlileg'
'net_'
'needles_'
'mellitus_'
'lifi'
'föld_'
'feel'
'eva'
'aemia_'
'Temozolomide_'
'Russ'
'LE_'
', ‘_'
'vinnu'
'ulat'
'tg'
'sérstök'
'ono'
'learn_'
'kor'
'insufficiency_'
'gerðu_'
'biðja_'
'IF'
'Although_'
'yde'
'skaða'
'rest'
'relapse'
'olu'
'odo'
'efnum_'
'Sau'
'þrjá_'
'veit'
'stel'
'sofa_'
'immuni'
'cín_'
'average_'
'Pack_'
'þjónustu'
'öng_'
'viðmiðunar'
'rás'
'nec'
'mörg_'
'kín'
'fjall'
'ee_'
'Kan'
'Everybody_'
'þriðju'
'ugu'
'support_'
'rivastigmin'
'organi'
'nobody_'
'ika'
'flytja_'
'dg'
'bilirubin_'
'amino'
'admi'
'Lau'
'ðs_'
'ánægð'
'verr'
'tec'
'nýrna_'
'nsk'
'margar_'
'lausa'
'fang'
'etan'
'aþ'
'Spiromax_'
'Bill_'
'ónæm'
'írs_'
'ær_'
'slík'
'rsi'
'nib_'
'gast'
'fylgt_'
'OR_'
'HR_'
'FY'
'ðirðu_'
'uv'
'princ'
'margir_'
'loy'
'keyr'
'ist'
'allo'
'óa'
'ðra_'
'vita'
'tær_'
'ráði'
'rot_'
'rme'
'osp'
'nte'
'leif'
'hár_'
'Vol'
'Stribild_'
'zol'
'yll'
'waste_'
'væg'
'vans'
'ui'
'skammtaaðlögun_'
'rap'
'naði_'
'md'
'kallað'
'ife'
'heilsu'
'angr'
'GM'
'öskjunni_'
'pare'
'lista'
'hing_'
'ffi'
'apr'
'BO'
'“)'
'tle'
'rð_'
'jörðin'
'bind'
'Ton'
'MP'
'INC'
'Cos'
'Almenn'
'sjúkdómi_'
'ríkis'
'occ'
'nation_'
'mörgum_'
'm²_'
'metótrexat'
'med'
'jað'
'immediate_'
'fara'
'ev'
'devi'
'bláæða'
'aða_'
'þrisvar_'
'uma'
'stable_'
'ric_'
'osit'
'mod'
'kaffi'
'föt'
'eitilfrumu'
'dow'
'Tommy_'
'Ray_'
'Fí'
'DE'
'tut'
'tré'
'pped_'
'ode'
'mess'
'lus'
'kvíð'
'gerðum_'
'endurs'
'blóðrauða'
'Disc'
'sára'
'skurð'
'mjólk_'
'mic_'
'meinvörpum_'
'liggur_'
'ien'
'eld_'
'discomfort_'
'Sú'
'Pen_'
'OS_'
'Moses_'
'útgáfu_'
'viðkomandi_'
'vinnu_'
'mice_'
'mainly_'
'lack_'
'hundred_'
'IL'
'Due_'
'71_'
'nægi'
'gild'
'components_'
'broken_'
'boat_'
'avir'
'Sér'
'Stór'
'Sov'
'Live'
'Father_'
'Cer'
'venjulegu'
'vardenaf'
'sæl'
'stjóra'
'removed_'
'punkt'
'fly_'
'bed'
'Hypersensitivity_'
'Eviplera_'
'þakk'
'skö'
'setti'
'parti'
'lím'
'blóðvökva_'
'basis_'
'óta'
'yggi'
'ways_'
'umbrot_'
'taste_'
'tafl'
'nak'
'mikilvæg'
'fyrirgef'
'falli'
'dín_'
'United_'
'Sag'
'Pass'
'Konur_'
'CD4_'
'shouldn_'
'kólesteról'
'klá'
'flas'
'fel'
'adren'
'Lat'
'LDL_'
'sofosbuvir_'
'slembiraðað_'
'pus'
'nap'
'mæli_'
'Juli'
'sva'
'lips_'
'götu'
'expe'
'cle'
'age'
'Remember_'
'Börn_'
'æð'
'pect'
'minnkuð_'
'meðferðarhóp'
'litu'
'gena'
'afg'
'Sodium_'
'BE'
'Auk_'
'’'
'sun_'
'psi'
'lude'
'heyr'
'flæ'
'Verið_'
'Hypo'
'85'
'örvunar'
'ökum_'
'spee'
'hvítra_'
'heal'
'grow'
'eg_'
'blóðkal'
'Stand'
'Gla'
'German'
'weapon'
'ristil'
'læri'
'cep'
'US'
'Lang'
'Dagsetning_'
'ðinn_'
'suppress'
'push_'
'leiða_'
'kja'
'dor'
'dispe'
'depend'
'beinum_'
'HA_'
'Alex_'
'stas'
'sjálfboðaliðum_'
'rial'
'mjúk'
'kon'
'gentlemen_'
'fie'
'emo'
'aki'
'Pegasys_'
'Gam'
'Aranesp_'
'ðva'
'ytri_'
'valdi_'
'strákur_'
'rica'
'reas'
'race_'
'líkam'
'herbergi_'
'fas'
'borgin'
'beina_'
'aða'
' , _'
'”_'
'plasma'
'aðst'
'SAM'
'Kaletra_'
'DO'
'CY'
'vöru'
'smell'
'skyldi_'
'oxí'
'losa'
'forset'
'dyn'
'corresponding_'
'cing_'
'cellulose_'
'ass'
'LYF'
'voriconazole_'
'track'
'mæld'
'liðs'
'hverfa_'
'foring'
'fjar'
'berjast_'
'Rivastigmine_'
'Product_'
'Guði_'
'Flokkun_'
'áfylltum_'
'unga'
'sens'
'manneskj'
'kana'
'elevated_'
'alla'
'Pos'
'Okkur_'
'ífa'
'spurning'
'sekúndur_'
'ophili'
'legri_'
'ital'
'gut'
'fóstur'
'dilution_'
'cit'
'bólgueyðandi_'
'blóðþrýstingi_'
'binda'
'System_'
'Pho'
'007_'
'þvagsýru'
'virku_'
'sprautu'
'settu'
'samb'
'rifampicin_'
'lögð'
'isi'
'hýdróklóríð_'
'fast'
'bow'
'Tel'
'Líf'
'Get'
'þínar_'
'ávinning_'
'viðskipt'
'tækifæri_'
'taki'
'ption_'
'megi'
'glob'
'gland'
'eiginlega_'
'blast'
'Sle'
'PFS_'
'NCI'
'Legg'
'Boy'
'vakna'
'tilbúinn_'
'sum'
'skí'
'screen'
'relati'
'næg'
'myocardial_'
'gró'
'glycop'
'gl'
'gel'
'dum'
'berg'
'arv'
'Núna_'
'ábyrgð_'
'vísa'
'vist'
'stóra_'
'sjónu'
'sjaldgæf'
'ról'
'rfu'
'menn'
'læði'
'lim'
'krabbameinsvaldandi_'
'fólkið_'
'display'
'band_'
'Virka_'
'Töflu'
'Avastin_'
'vægt_'
'spyr'
'dala'
'RO_'
'IN_'
'sky'
'relationship_'
'ogical_'
'calling_'
'bý'
'Lilly_'
'HDPE_'
'ídó'
'vid'
'vandamál'
'tár'
'thro'
'skort'
'sjaldgæfum_'
'nol'
'macro'
'glad_'
'fol'
'ention_'
'easi'
'dælu'
'ace'
'Nei'
'Ket'
'pick'
'neuro'
'luck_'
'barneignaraldri_'
'asv'
'accidental'
'Watch_'
'Krist'
' °_'
'vísbendingar_'
'initi'
'eign'
'copies_'
'Tó'
'transfer_'
'tengd'
'stofu'
'nein_'
'maintained_'
'dru'
'although_'
'TRE'
'öflugu'
'æsk'
'umu'
'situ'
'greindu'
'fangi'
'end'
'ell_'
'cortico'
'Júda'
'HEXAL_'
'Eftirfarandi_'
'venous_'
'unga_'
'thyroid_'
'stopp'
'ons'
'mur_'
'idine_'
'hópi_'
'fósturvís'
'fact'
'cut'
'antibiotic'
'Studies_'
'SD_'
'MI_'
'IE'
'viti'
'villi'
'van_'
'umbrotsefni'
'ritu'
'orat'
'lé'
'leit_'
'kann'
'jump'
'imab'
'Sca'
'Christmas_'
'006_'
'öldu'
'whee'
'wall'
'veistu_'
'success'
'possibly_'
'nýrnas'
'meðhöndlu'
'ient_'
'hydrochlorothiazide_'
'eki'
'eituráhrif_'
'drep'
'aðar_'
'Red_'
'REYATAZ_'
'Den'
'?'
'örugglega_'
'ðil'
'tækið_'
'testing_'
'protection_'
'nam'
'miðlungsmik'
'minor_'
'lóð'
'gær_'
'goddamn_'
'brig'
'ahe'
'þekkir_'
'vascular_'
'pam'
'nafæð_'
'kyrr_'
'cats_'
'!"_'
'umf'
'tilbúin_'
'rífa'
'olanzapine_'
'forever_'
'ede'
'cyst'
'accu'
'Qua'
'MD'
'ðk'
'vinnur_'
'vini_'
'substrates_'
'skap'
'rði'
'nations_'
'infarction_'
'hýdroxíð_'
'hlusta_'
'gni'
'flun'
'div'
'convers'
'blóðrás'
'Say_'
'LT'
'ACT'
'yng'
'sýn_'
'regarding_'
'pray'
'niður'
'líkama'
'lunar'
'keypt'
'karla'
'innl'
'ella_'
'botn'
'acidosis_'
'H5N1_'
'worsening_'
'update'
'syni'
'sjúklinganna_'
'ppa_'
'okk'
'langtíma'
'krabbameinslyfj'
'eitur'
'bring'
'bid'
'athug'
'Suc'
'Really_'
'Bus'
'Ð_'
'venjuleg'
'stud'
'ngd'
'hæð_'
'fea'
'exposures_'
'dín'
'booste'
'Norma'
'Jak'
'Freka'
'Ein_'
'Dec'
'uri'
'snertingu_'
'rog'
'rav'
'mæ'
'led'
'dó_'
'cess'
'aukinn_'
'assay_'
'Limited_'
'Cont'
'ástandi_'
'seek_'
'rúmi'
'oxy'
'lai'
'kir_'
'isa'
'fædd'
'cast'
'apply_'
'Up'
'Mean_'
'II'
'EX_'
'Áh'
'wood_'
'sweet_'
'person'
'opio'
'ok_'
'mixtúru_'
'central_'
'barkster'
'adrenal'
'Nick_'
'Ísrael_'
'ynd'
'sildenafil_'
'nud'
'normally_'
'haemo'
'Figure_'
'toward'
'talar_'
'spray_'
'neinn_'
'læti'
'ire_'
'Was_'
'Bla'
'BLI'
'étt_'
'síðast_'
'rannsóknarinnar_'
'mul'
'kringum_'
'gastro'
'future_'
'fni'
'comparable_'
'blöndu'
'ace_'
'Contents_'
'skráð'
'gift_'
'gene_'
'gamma'
'beðið_'
'ap_'
'Skammta'
'Bob_'
'þreng'
'þol_'
'unc'
'skar'
'llin'
'ibit'
'ever'
'epre'
'bygging'
'absolute_'
'Natríum'
'CARTON_'
'Bayer_'
'áttar_'
'sýnd'
'seem_'
'pain'
'marked_'
'ggu'
'fu_'
'cough_'
'circulati'
'cept_'
'Tan'
'TNF_'
'Elli'
'34'
'ýmis'
'tjá'
'symptomatic_'
'sjúk'
'pee'
'medication_'
'hömlun_'
'fúmarat_'
'dysp'
'card'
'bou'
'Bal'
'xab'
'viðtaka_'
'tá'
'sort_'
'sign'
'road_'
'lýsing'
'ino'
'hafð'
'gangur_'
'dócetaxel'
'cel'
'beri'
'aut'
'almennt_'
'Mary_'
'Mark_'
'GFR_'
'ðan'
'ties_'
'suicid'
'rækt'
'pon'
'neu'
'neinum_'
'nafni_'
'kanínum_'
'góðu_'
'gjörð'
'framleið'
'eng'
'developing_'
'sýki_'
'svim'
'sudden_'
'metform'
'main_'
'lizumab_'
'leika'
'kenni_'
'extrem'
'era_'
'ead_'
'bry'
'anhydrous_'
'accordance_'
'Coo'
'‌'
'transmi'
'stöðvu'
'skammtastærð'
'ny'
'metastatic_'
'lögu'
'ido'
'gjör'
'conta'
'bolta'
'aldurs'
'aba'
'Work'
'She'
'Lab'
'- '
'þvo'
'áætlað'
'viðu'
'twi'
'rýsting'
'rese'
'prosta'
'jókst_'
'hrif'
'dug'
'carcinogenic'
'búist_'
'burn'
'amlodipine_'
'Sjúkling'
'Hea'
', (_'
'vara_'
'gði'
'grastim_'
'fyrirtæki'
'buddy_'
'Fan'
'Comp'
'öku_'
'ísó'
'tub'
'limit_'
'lands'
'illness_'
'horse_'
'bil'
'becom'
'arra'
'Ul'
'Hve_'
'Efficacy_'
'veirus'
'tric'
'telmisartan_'
'stjórna_'
'samanburðarrannsókn_'
'opnað'
'onv'
'gætum_'
'coo'
'compari'
'appear'
'GA_'
'ástæðu'
'ulcer'
'sérh'
'sweet'
'stoð'
'storkuþátt'
'ones_'
'móður'
'kreatínínúthreinsun_'
'fóstr'
'farðu_'
'elvitegrav'
'ega'
'beginning_'
'Xe'
'Kno'
'IO'
'Form'
'Breyt'
'ákveðið_'
'unlikely_'
'uci'
'sérstak'
'miklum_'
'meðaltal'
'lyfjapennan'
'lausnina_'
'gleri_'
'drykk'
'Nex'
'EX'
'Ak'
'öngu'
'væru_'
'vaka'
'samsetningu_'
'metr'
'hero'
'handle_'
'góða'
'grát'
'elsk'
'eam'
'arter'
'armi'
'vand'
'tumours_'
'segamyndun_'
'prevention_'
'lækna'
'lina'
'kreatínín'
'decision_'
'bell'
'azi'
'íðu'
'æg'
'ÞY'
'web'
'sæfð'
'sagðist_'
'rve'
'rosi'
'milliverk'
'kraft'
'ified_'
'function'
'dópa'
'defen'
'caus'
'blin'
'Verku'
'Má'
'þrjár_'
'str'
'soft_'
'rót'
'route_'
'nch'
'mme'
'inng'
'ingi'
'harð'
'cef'
'bendir_'
'att'
'Skipt'
'Fall'
'Aðal'
'xis_'
'weak_'
'utan'
'ulo'
'seeing_'
'líkleg'
'bul'
'bið_'
'Medi'
'.)_'
'titrat'
'stic'
'skaðleg'
'situation_'
'ses'
'rather_'
'print'
'pap'
'handlegg'
'ext'
'bænum_'
'aus'
'altar'
'afs'
'ZYP'
'Chin'
'travel'
'tei'
'pte'
'losna'
'inns'
'green_'
'diabetic_'
'bs'
'Shut_'
'ILI'
'Efav'
',” _'
'óns'
'rón'
'róg'
'redness_'
'ppa'
'hýdróklórtíazíð'
'flý'
'fib'
'alvarlegan_'
'Vic'
'VA_'
'Judah_'
'Hversu_'
'>_'
'skilur_'
'screw'
'oll'
'getið_'
'Who'
'Pea'
'íða_'
'stofuhita_'
'side'
'produced_'
'particles_'
'naïve_'
'mistök_'
'lur_'
'lett'
'kaðu_'
'hliða'
'findings_'
'fibri'
'fenó'
'excipients_'
'esome'
'endurt'
'draum'
'daz'
'Svar'
'Plegridy_'
'Cra'
'þurrkur_'
'trac'
'requirements_'
'menni'
'interv'
'fixed_'
'eyð'
'erythema_'
'dansa'
'applica'
'Vel_'
'uta'
'tj'
'tested_'
'stelpu'
'odi'
'byggt_'
'brest'
'Verkun_'
' (<_'
'ðg'
'ábending'
'tuð'
'tens'
'stunda'
'ofsakláði_'
'mín'
'method_'
'meirih'
'lifrarensím'
'hlutu'
'efn'
'Max_'
'áre'
'vörn_'
'ssu'
'skild'
'protease_'
'nálina_'
'heldurðu_'
'gues'
'empty_'
'date'
'bróður_'
'Snú'
'SS'
'Kom'
'Irbesartan_'
' ≤ _'
'yð'
'yggj'
'vöðvak'
'nauð'
'mjólkurs'
'leiðrétt'
'ji'
'fæst_'
'estim'
'ery'
'diu'
'blæðingar'
'amin'
'While_'
'57'
');_'
'örva'
'tly_'
'mn'
'fékkst'
'fing'
'Mem'
'ýl_'
'ákveða_'
'worked_'
'tein'
'stopping_'
'sex'
'sat'
'record'
'opened_'
'machine'
'lactati'
'jaf'
'infliximab_'
'haldi'
'fungal_'
'flip'
'file'
'cil'
'bjargað'
'Viðb'
'Undir'
'Ori'
'Change'
'þjá'
'verka'
'tuna'
'trig'
'tengi'
'tac'
'suð'
'ssk'
'spreng'
'ough'
'lendi'
'klópídógrel'
'hluti'
'disposa'
'ddi_'
'TION_'
'visit_'
'veik'
'treyst'
'stungulyfsstofn_'
'rauða'
'rannsóknin'
'potent_'
'kynþ'
'hlið'
'ginn_'
'cina'
'Einu'
'vic'
'stir'
'ort_'
'korti'
'klóríð_'
'foot_'
'flutnings'
'butt'
'ald_'
'Samkvæmt_'
'Mit'
'Hafa_'
'skrifað'
'sjúkdómum_'
'reyting'
'lent'
'köst'
'kvæ'
'highly_'
'getu_'
'fjarlægð'
'eitil'
'digoxin_'
'Dy'
'yri'
'temporar'
'sizes_'
'mbo'
'lyn'
'las_'
'kvik'
'ition_'
'hættir_'
'hvat'
'geislavirk'
'fullu'
'einlyfjameðferð_'
'bæling'
'amide_'
'rni'
'mip'
'gula'
'getað_'
'bætt_'
'bacterial_'
'axi'
'CAP'
'þörf'
'prem'
'oin'
'ofu'
'miðlungs_'
'merc'
'lykt'
'hefðbundn'
'aum'
'Myc'
'Gefðu_'
'óma'
'ávinningur_'
'via'
'rect'
'nded_'
'nati'
'mas'
'lopinavir_'
'laugh'
'hic'
'eitr'
'complications_'
'PegIntron_'
' (='
'úth'
'ærum_'
'wearing_'
'sample'
'perf'
'mælti_'
'movement'
'litlaus_'
'lesions_'
'good'
'gað_'
'ens_'
'NG'
'Bless_'
'Afsakaðu_'
'svein'
'suspected_'
'sjálf_'
'reyndi_'
'proportion_'
'mund'
'greining_'
'fus'
'bólusetningar'
'Ob'
'Has'
'Facto'
'view_'
'stuð'
'preparation_'
'mell'
'kan_'
'innöndunartæki'
'festa'
'cook'
'barni'
'Port'
'Clea'
'CEL'
'Back_'
'versi'
'muscul'
'los_'
'leiku'
'herra'
'gjafa'
'dexamethasone_'
'DE_'
'.’'
'velja_'
'treating_'
'stöðugt_'
'lyfjag'
'ides_'
'hunda_'
'fólk'
'frið'
'dos'
'breytingum_'
'Hur'
'Grand'
'Eld'
'úð'
'örva_'
'sæti_'
'salicylic_'
'roc'
'resp'
'rabbits_'
'laug'
'frásog'
'essential'
'dauða'
'Shar'
'Ry'
'Coa'
'Char'
'velt'
'ths_'
'stofnu'
'samþykkt'
'renn'
'pru'
'orðinn_'
'ldu'
'kraf'
'judge'
'iro'
'hvítblæði_'
'gui'
'geni'
'frásog_'
'braut'
'Rau'
'NA_'
'vörun'
'substrate_'
'stabili'
'outcome_'
'lausnin_'
'ism'
'fosfó'
'fear_'
'erfi_'
'drepi'
'bag'
'Severe_'
'Hefur_'
'Big_'
'uit'
'strákar_'
'ridi'
'recommend'
'radiol'
'pregabal'
'inhibit_'
'gæ'
'gge'
'gati'
'fundi'
'cove'
'blóðfrum'
'UT'
'Shel'
'Ass'
'útli'
'vega_'
'undin'
'slys'
'sensitive_'
'ruð'
'mmHg_'
'ising_'
'inhaler_'
'ene_'
'duft_'
'absence_'
'Pakkning'
'Meðan_'
'AUC'
'örl'
'ám'
'vilji'
'varna'
'sleppa_'
'ren_'
'pop'
'nings'
'ming'
'hnapp'
'gilda_'
'eykur_'
'ester'
'down'
'discard'
'bo_'
'assa'
'Spa'
'Pot'
'Læk'
'Bortezomib_'
'--'
'þurfi_'
'tie'
'shock_'
'samk'
'oda'
'grav'
'flutning'
'diet_'
'Ur'
'Shit_'
'_'
'— _'
'æfing'
'ximab_'
'swa'
'rin'
'refer_'
'ond'
'message_'
'klós'
'gleymdi'
'fé_'
'antip'
'Jon'
'Chol'
'Bí'
'Bru'
'81_'
'ýti'
'ætluð'
'tet'
'tat'
'sérstakrar_'
'stú'
'stimulati'
'proli'
'missing_'
'linu'
'ew'
'elevations_'
'Too'
'Sérðu_'
'INR_'
'INN'
'Hlut'
'Glu'
'íd'
'mynd'
'mikl'
'kvi'
'Abraxane_'
'xl'
'möguleg'
'mál'
'kst'
'duc'
'achi'
'skuli_'
'show'
'pump'
'mum'
'manns'
'magnesium_'
'aa'
'Cart'
'Bond'
'væga_'
'versnunar_'
'raz'
'ratu'
'nemur_'
'mixt'
'mikil'
'mega_'
'kaupa_'
'isolate'
'eintök_'
'com'
'berkju'
'Wo'
'Dos'
'AE'
'ást_'
'tr'
'mediated_'
'lowering_'
'iba'
'hla'
'etn'
'emtrícítabín'
'blockers_'
'Xo'
'Ró'
'Jimmy_'
'Baby'
'Annar'
'ýni'
'árang'
'vatni'
'varnar_'
'polys'
'piss'
'lausni'
'km'
'dia_'
'coffee_'
'brav'
'ash'
'arle'
'ane_'
'akk'
'address_'
'added_'
'Næst'
'EMEND_'
'CYP2'
'80'
'ocular_'
'ita_'
'iste'
'gamla_'
'flow_'
'eu'
'Farg'
'þínir_'
'þræ'
'önnum_'
'óvirk'
'thrombosis_'
'thanks_'
'sýn'
'spoke'
'separate_'
'loved_'
'hvoru'
'hringi_'
'gjarn'
'ggin'
'decreases_'
'blóðsýring'
'answer'
'Með'
'æðak'
'uble'
'toxic'
'thio'
'suck'
'sakna'
'rely_'
'pul'
'neyt'
'list'
'geng'
'dabrafenib'
'cle_'
'ZA'
'þyng'
'yf'
'xin'
'virologic'
'train_'
'sjái'
'peningana_'
'orp'
'offer'
'nauðsynleg_'
'nasal_'
'logy_'
'lay_'
'hri'
'hitt_'
'aldi'
'Vei'
'Tas'
'Sérstak'
'íti'
'Ást'
'virði_'
'vely_'
'rapidly_'
'pse'
'port_'
'pid'
'norð'
'match'
'markaðsleyfi'
'kvöld'
'fað'
'eitla'
'bottles_'
'adv'
'SEN'
'Móse_'
'IR_'
'Cre'
'”._'
'ótí'
'shop'
'pent'
'lista_'
'causes_'
'byssu'
'Thu'
'Lad'
'Algengustu_'
'óge'
'taf'
'quit'
'pay'
'paid_'
'kli'
'irritation_'
'gea'
'baki'
'Sch'
'Gan'
'úmab'
'ttur_'
'spasm'
'mechanism_'
'kransæða'
'hep'
'fjórum_'
'Mes'
'GR'
'Daddy_'
'ægi'
'áb'
'snú'
'prote'
'officer'
'leyti_'
'kynlíf'
'kind'
'brun'
'Rei'
'Ný'
'ITT_'
'Bein'
'Íhuga_'
'pes'
'innr'
'fyrra'
'fyrirb'
'fire'
'ator'
'afar_'
'xan'
'veið'
'rar'
'percent_'
'ngi_'
'mmtu'
'hos'
'hjartasjúkdóm'
'flog'
'farinn_'
'brie'
'blóðþrýstingur_'
'blow_'
'vinnun'
'setj'
'press'
'middle_'
'leit'
'þola'
'use'
'tog'
'sveppasýking'
'rannsóknar_'
'komnir_'
'kjö'
'ipr'
'blóðskilun_'
'aust'
'Bak'
'tilfinninga'
'resto'
'mst_'
'fí'
'ett_'
'constipation_'
'augun_'
'allowed_'
'óv'
'zz'
'ulsion'
'species_'
'sou'
'remain_'
'recommendations_'
'mið_'
'kæmi'
'YT'
'Women_'
'TS'
'Cop'
'↑'
'skort_'
'ours'
'oi'
'mati'
'kvæm'
'hræ'
'helgi'
'faith'
'bens'
'alvarlegu'
'Úts'
'vegu'
'sjaldan_'
'regluleg'
'reb'
'passi'
'lifrar_'
'kring'
'kkur_'
'jöl'
'intervals_'
'indu'
'idopa_'
'idin'
'enda'
'directly_'
'blóðþrýstings'
'andi'
'Marc'
'þriðja_'
'ætta'
'watching_'
'tít'
'míð_'
'lock_'
'innrennsliss'
'hreyf'
'gain_'
'definit'
'arterial_'
'Turn_'
'Sjáið_'
'Name_'
'Manstu_'
'Bes'
'51'
'tyr'
'sýni_'
'lefl'
'komu'
'hve'
'fylgis'
'fjóra'
'Sæl_'
'Flest'
'AÐ'
'Þ_'
'verj'
'stran'
'press_'
'nucle'
'máls'
'margt_'
'marga_'
'europa_'
'clothes_'
'Dríf'
'Att'
'Afr'
'íns'
'virkilega_'
'transferas'
'skipt'
'sjúkling_'
'pipe'
'orðin_'
'none_'
'hjartsláttur_'
'hjartslátt'
'gað'
'felt_'
'dýri'
'cation_'
'applied_'
'ótt'
'wort'
'stjórnun_'
'sermis'
'rub'
'record_'
'pric'
'nine_'
'minnk'
'ment'
'discontinue_'
'Wow_'
'Mó'
'Class_'
'Bel'
'Are'
'ótta'
'æsi'
'pou'
'olanzapin'
'ngs'
'minnkaði_'
'húsi_'
'framkvæma_'
'Sýn'
'Sher'
'Mid'
'London_'
'ósín'
'óeðlilega'
'vis_'
'usti'
'star_'
'short'
'ríbavírin'
'oma_'
'nel_'
'iz'
'flösku'
'bev'
'Zu'
'Ung'
'Rose'
'Bret'
'*'
'örun_'
'éttu'
'víg'
'ural'
'stæð'
'shir'
'risa'
'líp'
'læs'
'leik_'
'irbesartan_'
'formation_'
'bað'
'afi'
'Type_'
'Renal_'
'Pharmacotherapeutic_'
'Met'
'Jerusalem_'
'41'
'38'
'ónæmiskerfi'
'áfyllt'
'ráðg'
'nuð'
'krampa'
'gas_'
'ferði'
'dron'
'conce'
'Ril'
'ANC_'
'Þe'
'Ár'
'planning_'
'mælinga'
'mato'
'join'
'episodes_'
'enter_'
'arst'
'Bli'
'Þy'
'yndi'
'ró'
'má'
'kólín'
'innöndunar'
'gliptin_'
'fst'
'einhvers_'
'ching_'
'bear'
'apo'
'ams_'
'TR'
'Hon'
'ýle'
'tónlist'
'turn'
'slysni_'
'sing'
'ngun'
'kanna_'
'dest'
'brom'
'asn'
'afleiðing'
'Lát'
'DR'
'zide_'
'vöðvas'
'takt'
'opha'
'hótel'
'fallegt_'
'bóluset'
'acetate_'
'Sav'
'Hous'
'Desc'
'Aut'
'”)'
'ætlum_'
'varnar'
'trúa_'
'sie'
'rita'
'lækka'
'kref'
'hlutfalli_'
'els_'
'Welcome_'
'Sing'
' ('
'viðurkenn'
'tun_'
'nad'
'nA'
'millistykki'
'loka_'
'lofti'
'linga'
'klukku'
'dýralyfi'
'borg'
'KE'
'Fylg'
'ually_'
'tty_'
'tase_'
'sýni'
'sjúklingsins_'
'prescribe'
'plás'
'metho'
'lend'
'kru'
'isc'
'ination'
'gular_'
'famili'
'crow'
'asthma_'
'arna'
'anal'
'Jas'
'App'
'útlimum_'
'óþol_'
'veiki_'
'tengdar_'
'sword_'
'slæmt_'
'sjónvarp'
'onto_'
'ners_'
'lucky_'
'geri'
'detected_'
'Repa'
'Open_'
'Az'
'ósi_'
'stökk'
'ráðlagður_'
'nelf'
'mum_'
'meas'
'löngu_'
'kirtl'
'dáin'
'Minnk'
'öx'
'pup'
'phyl'
'offering_'
'ketoconazole_'
'grad'
'geno'
'exist'
'egi'
'dæl'
'amínó'
'RT'
'MAN'
'Levetiracetam_'
'Einmitt_'
'Age'
'áætlu'
'áfall'
'stol'
'selja_'
'refni_'
'points_'
'opin_'
'oner'
'korn'
'félaga'
'defect'
'bráðr'
'awa'
'NG_'
'MIR'
'KwikPen_'
'Hug'
'Franc'
'ís_'
'væg_'
'vek'
'vap'
'tímabili_'
'styrk'
'snar'
'serv'
'ree'
'predict'
'lyfhrif'
'kveik'
'hylki'
'hydrat'
'fist'
'doo'
'bili_'
'Ley'
'Góða_'
'AU'
'öfnun'
'withdrawal_'
'vex'
'thousand_'
'svörunar_'
'reac'
'lie'
'kine'
'icul'
'harm_'
'fæðu_'
'flög'
'commit'
'OS'
'CR_'
'Ah'
'Activ'
'ígræ'
'talaði_'
'segi'
'própýlen'
'pine_'
'obs'
'kyns'
'einstaklingar_'
'coagulation_'
'cks_'
'blek'
'agin'
'Shi'
'RoA'
'Dal'
'," _'
'þynna_'
'óls'
'ævi'
'wards_'
'tecan_'
'stom'
'sensitivity_'
'remov'
'puri'
'mam'
'lotu'
'loa'
'gang_'
'carried_'
'cardio'
'breytile'
'Genvoya_'
'úin'
'áhuga_'
'wan'
'ufu'
'try'
'present'
'navir'
'misst'
'klára'
'hvö'
'gesti'
'fullt_'
'azo'
'antih'
'amm'
'after'
'MARK'
'Hver'
'Fla'
'Aaron_'
'öll'
'æðasjúkdóm'
'árin'
'vaxtar'
'tungu_'
'trom'
'tilgrein'
'spila'
'slep'
'skapa'
'psycho'
'prófa'
'paclitaxel_'
'njó'
'miðl'
'ix_'
'glut'
'gelat'
'fil_'
'dinn'
'dime'
'Róleg'
'IB'
'þý'
'unav'
'tel_'
'skömm'
'sigra'
'sag'
'lun_'
'lov'
'ilega_'
'dauður_'
'byssun'
'broke_'
'bils'
'\'
'UV'
'TO_'
'Skammtur'
'Hv'
'Disp'
'Aðrar_'
'þjóna'
'Þa'
'Ísraelsm'
'vinn_'
'vie'
'súlfa'
'sófosbúvír'
'send'
'saved_'
'mpe'
'lase'
'kló'
'greini'
'erti'
'charge_'
'bak_'
'Mex'
'Marketing_'
'Jane'
'DS_'
'43'
'))'
'töðu'
'skv'
'reglur_'
'nig'
'líkamsþ'
'lækka_'
'lin'
'granul'
'fótum_'
'formulation_'
'eating_'
'deter'
'barr'
'aðgengi_'
'Ram'
'Qu'
'Mus'
'Lis'
'Fen'
'ólu'
'ylo'
'verkunar_'
'töflurnar_'
'slöngu'
'skilgreind_'
'izo'
'ept'
'ente'
'dufti'
'aukist_'
'Sím'
'Lyf'
'Einkenni_'
'Cert'
'zúmab'
'vað'
'uppt'
'skjót'
'sjúkrahús'
'seinn'
'pá'
'munum_'
'kosta'
'hættuna_'
'hæl'
'hefi_'
'fyr'
'breath'
'amen'
'Vonandi_'
'Sky'
'þó'
'zin'
'ydr'
'uz'
'tree_'
'tepp'
'sts_'
'starfa'
'slau'
'sjúklingahóp'
'scien'
'pneumonia_'
'otin'
'mæl'
'missa_'
'meið'
'meant_'
'kónazól'
'hur'
'hoo'
'gard'
'fk'
'dropa'
'carcinoma_'
'Unit'
'LAR'
'Hri'
'ýði'
'ýms'
'unomide_'
'umbúðum_'
'umbúðir_'
'telur_'
'síns_'
'roða'
'rins'
'purp'
'próp'
'oil_'
'oea_'
'líð'
'kynja'
'avír_'
'Gat'
'65'
'urticaria_'
'procedures_'
'jir_'
'innihaldi'
'iki_'
'framlei'
'find'
'ency_'
'dóttur_'
'command'
'bron'
'balance_'
'OL_'
'NOT'
'James_'
'Fólk_'
'þátta'
'wonderful_'
'trad'
'tala'
'sölu'
'stolt'
'shows_'
'rís'
'ntr'
'hlo'
'hang_'
'handa'
'fjöll'
'enjoy'
'ao'
'More_'
'Fel'
'46'
'öfn'
'íku'
'ÐU'
'tungu'
'toni'
'tele'
'safna'
'ray'
'peak_'
'logical_'
'lal'
'itabine_'
'flot'
'finished_'
'fig'
'aukna_'
'angin'
'44'
'örf_'
'verðið_'
'unb'
'riat'
'responses_'
'pea'
'nate'
'mate_'
'hleðslu'
'hepato'
'handt'
'MAH_'
'Fimm'
'FR_'
'weren_'
'vökvas'
'sý'
'swi'
'sites_'
'sexual_'
'ndar'
'muta'
'handling_'
'ent'
'blóðmynd'
'barn'
'assu'
'Tr'
'NIN'
'Meðal_'
'Infus'
'ástæða'
'thi'
'struc'
'sper'
'slapp'
'official'
'nýrnasjúkdóm_'
'natal_'
'lögm'
'ling'
'hræðileg'
'heartb'
'compr'
'arte'
'Meth'
'Davíð_'
'tf'
'techn'
'stund_'
'rarely_'
'plen'
'operation_'
'note'
'mountain'
'manninn_'
'hormon'
'hina_'
'crib'
'Viramune_'
'Hepati'
'ónæmisbælandi_'
'technique'
'reco'
'mögulegt_'
'kerf'
'heið'
'getnaðar'
'gastric_'
'cyte'
'amb'
'Tæ'
'Heyri'
'tax'
'ost_'
'mótefna_'
'lying_'
'kvarða'
'kkað'
'glúk'
'gleyp'
'flur'
'flag'
'dge_'
'deri'
'continu'
'bókin'
'Vís'
'Fæ'
'Eina'
'Call_'
'Afsakið_'
'vat'
'tear'
'street_'
'ríbavírini_'
'repli'
'regimens_'
'nokkrar_'
'lyfjapenna_'
'kvöldi'
'kjar'
'kammta_'
'helvítis_'
'ferli'
'entacapon'
'childbearing_'
'Xultophy_'
'Prin'
'Dó'
'Ah_'
' ... _'
'útsk'
'ópíó'
'íum_'
'veiti'
'throm'
'stilling'
'staður_'
'snúi'
'rich_'
'millibili_'
'introduc'
'intravenously_'
'heyrð'
'alda'
'Test'
'PecFent_'
'Markaðsleyfishafi_'
'GmbH_'
'Dex'
'BY'
'zep'
'undu'
'tækni'
'spec'
'sjáum'
'pull'
'pio'
'myndunar_'
'lipid'
'gat'
'evil_'
'dreifingar'
'Rota'
'Mir'
'Lev'
'CIA'
'óþægindi_'
'tímabil'
'sumi'
'reve'
'not'
'jöf'
'háþrýsting_'
'fn_'
'diso'
'brand'
'Vé'
'UM'
'Nic'
'Hjarta'
'Acid_'
'140_'
'ákvörðun_'
'vöxt'
'varir_'
'sæði'
'skan'
'possibility_'
'ndan'
'magas'
'kyrninga'
'kki'
'instructed_'
'hækkuð'
'hunda'
'happening_'
'gagnvart_'
'ective_'
'darunavir_'
'adjustments_'
'Sumir_'
'Gardasil_'
'Fro'
'vær'
'tilfinning_'
'shou'
'ríki_'
'rent'
'quen'
'lipo'
'inndæling'
'incre'
'getnaðarvarnar'
'consider_'
'actor'
'Her_'
'þrír_'
'vina'
'tz_'
'surviv'
'smell_'
'sile'
'shee'
'ræt'
'peace_'
'operat'
'occasion'
'nálar'
'leyfi'
'karba'
'eco'
'blóðflagna'
'armál'
'Venjuleg'
'Ræ'
'HER'
'FC'
' (%'
'Ál'
'younger_'
'skóg'
'sia'
'lasti'
'kíló'
'kidding_'
'jarð'
'ham_'
'floor_'
'fell_'
'block_'
'Inject'
'Green'
'FU_'
'Dai'
'örugga_'
'yfirlið'
'stytt'
'shr'
'sed'
'recurren'
'poi'
'lý'
'lou'
'lod'
'körlum_'
'iu'
'histo'
'frétti'
'explain_'
'bill'
'Sar'
'Mí'
'Johnny_'
'HV'
'Cent'
'Ai'
'þykkni'
'ömur'
'ósta'
'ókn'
'ábyrg'
'stökkbreyt'
'stofni_'
'stimpil'
'soc'
'réttu'
'oa'
'ngu'
'miðtaugakerfi'
'milljón_'
'himn'
'gifta'
'fætur_'
'extent_'
'cip'
'bact'
'assess'
'appears_'
'amlodipin'
'Ráð'
'RI_'
'Kó'
'Eigum_'
'Auka'
'terri'
'sætt'
'syfj'
'randomized_'
'nýl'
'milligr'
'memant'
'hringi'
'hlutleys'
'grein_'
'glycaemic_'
'genotoxic'
'fag'
'dreifu_'
'clearly_'
'alternative_'
'aco'
'Dol'
'B1'
'þarma'
'weird_'
'trop'
'transport'
'throughout_'
'ior'
'individuals_'
'hlaupa'
'fjölskyldun'
'finish_'
'bein_'
'arn'
'Net'
'Mynd'
'Mark'
'ölu'
'ála'
'weigh'
'upptöku'
'töku'
'share_'
'kvö'
'ipp'
'intolerance_'
'brý'
'aukinnar_'
'TH'
'Ot'
'HB'
'Gin'
'Fas'
'þynning'
'áætla_'
'Þarf'
'utu'
'síu'
'rka'
'properly_'
'partner_'
'ndum_'
'myo'
'lived_'
'jálf'
'induce_'
'hitti_'
'gúmmí'
'gæð'
'dyrnar_'
'cloud'
'burn_'
'brott'
'Nov'
'Hó'
'AUC0_'
'tuberculosis_'
'trea'
'tely_'
'sérð_'
'sounds_'
'somewhere_'
'punc'
'pruritus_'
'phan'
'oxíð'
'lyf'
'locat'
'kyng'
'increasing_'
'heiður'
'content_'
'byr'
'bon'
'Nev'
'Gul'
'Cause_'
'μg_'
'ðb'
'æxlu'
'vörun_'
'villa_'
'takrólímus_'
'syng'
'submit_'
'song_'
'skrá_'
'rinu'
'lífið_'
'lei'
'kip'
'kins_'
'gd'
'forward_'
'ffe'
'enit'
'dek'
'bláæðum_'
'aukn'
'Pic'
'Non'
'Kate_'
'Dev'
'Cin'
'ADR'
'yrðu'
'wound_'
'tell'
'sýra_'
'opportuni'
'nað'
'lút'
'kreatínín_'
'húðina_'
'fund'
'frábær_'
'dót'
'dangerous_'
'comb'
'alvarlegt_'
'add_'
'Ví'
'Væ'
'VAN'
'Brot'
'48'
'þjóða'
'úlfa'
'villa'
'tape'
'rani'
'propyl'
'lausnar'
'impr'
'heilbrigðisstarfsm'
'heilab'
'deh'
'defi'
'dags'
'building_'
'andskot'
'Ofnæmi_'
'Off'
'Lor'
'HS'
'Control_'
'örk_'
'zín'
'tras'
'themselves_'
'replacement_'
'opp'
'nga_'
'mælingu'
'meðhöndlað'
'inve'
'int_'
'háa'
'holding_'
'gei'
'drive'
'dle'
'Memantine_'
'Kon'
'Hva'
' ↓ _'
'spirit'
'sph'
'pok'
'nótt'
'mr'
'mmi'
'like'
'innihaldsefnið_'
'iment'
'fuck'
'flow'
'fjór'
'fastandi_'
'boða'
'Mis'
'Isn_'
'Hlutfall_'
'Geri'
'Bráð'
'Angel'
'þung'
'ögg'
'ónu'
'óli_'
'verðu'
'variab'
'vag'
'ubl'
'stor'
'slátt'
'samsetning'
'salt'
'pred'
'lítill_'
'líkamans_'
'great'
'alyf'
'alls'
'UF'
'DP'
'008_'
'thromboemboli'
'söfnu'
'sótth'
'sólar'
'sell_'
'sambandi_'
'pel'
'leng'
'kinu'
'helst_'
'fylgni'
'fimmt'
'els'
'bigge'
'Ple'
'•_'
'ýsing'
'uric'
'stofn_'
'stiga'
'sitting_'
'proud_'
'mate'
'liðin'
'lega'
'hámarksskammt'
'gát'
'erfðaefni_'
'epi'
'drinking_'
'anaphylactic_'
'alit'
'Special_'
'Eth'
'+'
'ðni'
'yd'
'vagn'
'space_'
'smy'
'scal'
'rilpiv'
'revi'
'reikna'
'pín'
'pið_'
'meaning'
'karb'
'hólf'
'gefnir_'
'fyllt'
'fráb'
'ekju'
'dw'
'dude_'
'bruis'
'blóðg'
'aði'
'Fit'
'112_'
'ype'
'valsartan_'
'tilheyrir_'
'sæk'
'swo'
'resol'
'regularly_'
'pakkningar_'
'opr'
'myndast_'
'movie_'
'lib'
'kasta'
'isla'
'hva'
'hagi'
'fon'
'esi'
'erm'
'epide'
'emergency_'
'compet'
'bosentan_'
'beyond_'
'Vot'
'TMZ_'
'ætlun'
'týn'
'trat'
'teeth_'
'slíkum_'
'signal'
'sight_'
'oki'
'níb'
'nam_'
'mc'
'mad_'
'láttu_'
'lags'
'kerfið_'
'heiminum_'
'gerða'
'framk'
'eliminated_'
'corn'
'boss_'
'Zal'
'High_'
'AÐ_'
'Al_'
'-- _'
'zer_'
'vægar_'
'tera'
'tells_'
'sfr'
'sale'
'ruf'
'reductions_'
'prósent'
'papp'
'orodispersible_'
'nie'
'ndun'
'ima'
'eum'
'cru'
'bús'
'Terr'
'Sjáumst_'
'Kj'
'KK'
'Alla'
'.:'
'ólgu_'
'íbúð'
'viðv'
'vissu'
'veld'
'vation_'
'uses_'
'transplantation_'
'staðbundin'
'shake'
'rio'
'range'
'orsök'
'lines_'
'kri'
'hann'
'fullu_'
'degr'
'chee'
'aðlögun_'
'arí'
'Sama'
'umab'
'töflu'
'slowly_'
'sleep'
'skjaldkirtils'
'scen'
'personal_'
'læt'
'lyfjafræðing'
'ixa'
'isam'
'house'
'falleg_'
'engin'
'doxorubicin_'
'atorvastat'
'arly'
'SUN_'
'Pó'
'Carol'
'ðast'
'verkunar'
'summ'
'stearate_'
'moti'
'mei'
'klí'
'impact_'
'formi_'
'etró'
'comm'
'ach_'
'Progr'
'Gui'
'2000_'
'þætti_'
'Þótt_'
'strip'
'sore'
'runn'
'point'
'phenytoin_'
'pens_'
'læra_'
'legra'
'inning'
'ggja'
'garð'
'fð'
'forme'
'fjölskyldu_'
'býr_'
'afn'
'Intra'
'ótt_'
'withdraw'
'svefnhöfg'
'stilla_'
'review'
'prog'
'mission_'
'marktæk'
'loft_'
'land'
'för'
'fylgikvill'
'eini_'
'compl'
'acet'
'áhrif'
'sársauka'
'steps_'
'nh'
'ji_'
'hill'
'gren'
'conjuncti'
'belt'
'apparent_'
'SI_'
'Reyn'
'Me_'
'Eitthvað_'
'Christ'
'úf'
'stofna'
'sog'
'sner'
'rön'
'raunveruleg'
'offer_'
'nz'
'muna'
'mikilli_'
'exenat'
'excessive_'
'einingu'
'degi'
'compound'
'chew'
'borg_'
'base_'
'Imatinib_'
'svaraði_'
'smu'
'reyndu'
'realize'
'paper_'
'nlega_'
'leitað'
'ivacaftor_'
'fík'
'dust_'
'designed_'
'bráð'
'adjuvant'
'])'
'Whatever_'
'Sjálf'
'Hæg'
'DM'
'Children_'
'ýr_'
'varla_'
'tile'
'soma'
'skilyrði_'
'prol'
'ninga'
'munndreifit'
'leð'
'ils'
'hlusta'
'grunur_'
'gliptín'
'fullkomi'
'exh'
'ently_'
'búð'
'blóðinu_'
'acr'
'MG_'
'Jew'
'Effe'
'< _'
'Öll_'
'uss'
'twe'
'stelpur'
'sala'
'prim'
'ological_'
'meðferði'
'follows_'
'dró_'
'dol'
'classi'
'basi'
'afanir_'
'absorbed_'
'Vis'
'Som'
'PACK'
'Leiðbeiningar_'
')/_'
'! '
'suitable_'
'snýst_'
'sno'
'other'
'nne'
'gue_'
'gnu'
'fingr'
'dul'
'önnun'
'áða'
'}_'
'vem'
'undirhópum_'
'sö'
'stýr'
'skrifstofu'
'nandi_'
'miv'
'irk'
'ict'
'gátta'
'gulu'
'fir_'
'fangelsi_'
'eftirfylgni_'
'ciclosporin_'
'bútý'
'bjúg'
'benzo'
'Svi'
'Líka'
'Kenn'
'ðja'
'vélar_'
'treatments_'
'tengdum_'
'skamm'
'rsa'
'ritonav'
'rangt_'
'níu_'
'medica'
'lán'
'lutely_'
'litla'
'lagði_'
'insta'
'iktsýki_'
'ibu'
'herb'
'gos'
'föstu'
'flest'
'depress'
'cum'
'comfort'
'cocc'
'aðge'
'agonist'
'Number_'
'NovoMix_'
'Kí'
'Hlustaðu_'
'Cand'
'Ask_'
'þynnupakkningu'
'öndunarerfiðleik'
'áhætta_'
'usion_'
'skyldu'
'seal_'
'rðin'
'raun'
'programme'
'irnir_'
'guard_'
'delayed_'
'art_'
'alin'
'agr'
'Vill'
'Chic'
'Characteristics_'
'öst'
'vice'
'uncon'
'sis'
'selected_'
'reversible_'
'prazo'
'lofa_'
'llum_'
'lder'
'ingu'
'hýdr'
'forms_'
'egu'
'currently_'
'cost'
'bíð'
'borða'
'athygli'
'ath_'
'VAT'
'Stö'
'Rad'
'CF'
'warning'
'tio'
'setting_'
'service_'
'ovi'
'observation'
'near'
'löng'
'insert'
'hvíld'
'hnú'
'framhald'
'creati'
'búði'
'Yfir'
'PR_'
'Fáðu_'
'Blu'
'53'
'óri'
'reason'
'packag'
'börnin_'
'bæl'
'brú'
'Wall'
'TE_'
'Cur'
'Þess'
'vísi'
'slembir'
'skre'
'skilaboð'
'preci'
'pokan'
'næmis'
'leiki'
'ibi'
'hæð'
'graph'
'defer'
'ars_'
'Spar'
': ,_'
'únómíð'
'zidovudine_'
'tíð_'
'toma'
'stl'
'slíka'
'sai'
'ningar'
'favour'
'eyða_'
'eigh'
'aggre'
'Stundum_'
'Rom'
'Reb'
'Mikil'
'Lon'
'Gau'
'viðbót_'
'slík_'
'rista'
'reis'
'pý'
'partial_'
'lant_'
'hrist'
'gas'
'disappear'
'consider'
'chur'
'byrjun'
'breg'
'assist'
'Tar'
'Holly'
'Fljót'
'víkk'
'vega'
'urs_'
'ura_'
'týr'
'tímabili'
'tve'
'rabbamein'
'occurring_'
'nab'
'mu_'
'merkj'
'market'
'interrupt'
'hósti_'
'din_'
'atriði_'
'aftan_'
'Vega'
'TV_'
'Oc'
'JE'
'Innih'
'Exce'
'Dra'
'Amer'
' ?_'
'óín'
'sátt'
'sykursýki'
'subst'
'remind'
'permanent'
'myndar'
'meðvitund'
'lifrarbólg'
'kipt'
'exper'
'develop'
'dett'
'cos'
'belongs_'
'acetyl'
'President_'
'PRE'
'Information_'
'Help_'
'zzy_'
'thre'
'ocyt'
'heimil'
'grínast_'
'fíbr'
'explo'
'expect_'
'drap_'
'cult'
'aðstoðar'
'antagonists_'
'Para'
'East'
'Dri'
'CHMP_'
'About_'
'AS_'
'þörmum_'
'Ókei_'
'virkjun'
'sjálfan_'
'resta'
'prolongation_'
'opin'
'enic_'
'dula'
'dollar'
'disturb'
'cross'
'clas'
'agna'
'Main'
'Low'
'ANT'
'ým'
'tir'
'tch'
'sjálfum_'
'repeat_'
'rannsaka'
'pali'
'memory_'
'maintain_'
'lítill'
'lue'
'fy_'
'dýralyf'
'beinþ'
'beini'
'asó'
'angíótensín_'
'Tracleer_'
'Rannsókn'
'PDE'
'Jerúsalem_'
'Hund'
'ðver'
'éttni_'
'Þig_'
'tofn'
'tilkynning'
'streng'
'skammtab'
'object'
'mjólkur'
'mination_'
'key'
'húðinni_'
'guar'
'gg_'
'generat'
'fullorðna_'
'fruit_'
'fos'
'felu'
'administering_'
'Trú'
'Dav'
'Aeri'
'þýðingu_'
'ættu'
'stöð'
'returned_'
'plu'
'meltingarfær'
'lyfleys'
'fósturs'
'fylgiseðli_'
'farm'
'areas_'
'amma_'
'aine'
'Notaðu_'
'MO'
'It'
'Bring_'
'þykk'
'ólíkleg'
'sór'
'system'
'radiation_'
'pad'
'oh_'
'night'
'lon'
'heaven_'
'fremst'
'amazing_'
'administer_'
'Tec'
'RG'
'OPT'
'GON'
'Bab'
'vor_'
'viðbrögðum_'
'viðbragða_'
'vinn'
'vild'
'verki_'
'valin'
'trametinib'
'skilun_'
'renav'
'orsaka'
'oat'
'niti'
'mep'
'lungs_'
'listen'
'interfere'
'elect'
'eik'
'eate'
'concurrent'
'breytu'
'artíðni_'
'accident_'
'Ya'
'ONS_'
'Meðferð'
'Kyn'
'Invisalign_'
'Everyone_'
'Ea'
'08'
'Þessir_'
'unde'
'skuluð_'
'rít'
'penna_'
'ome_'
'natural_'
'hung'
'gie'
'drun'
'240_'
'þrýstingur_'
'útr'
'uat'
'temple_'
'supplement'
'sjálfv'
'siba'
'recogni'
'pher'
'orma'
'mála'
'fúmarat'
'bæk'
'became_'
'Tími'
'Slo'
'MEÐ_'
'Genuair_'
'Fine_'
'Ert_'
'ASKJA_'
'welcome_'
'virti'
'veiki'
'sótt_'
'sk_'
'nerve'
'marktækur_'
'lve'
'hettuglas'
'fótlegg'
'enhance'
'drow'
'completed_'
'buck'
'YL'
'Gene'
'3A4_'
'walking_'
'vitamin_'
'ulin'
'súl'
'sérstaka'
'skipa'
'sav'
'rn_'
'rex'
'neinn'
'mail'
'hia'
'gers'
'endurtekn'
'HT'
'óvart_'
'tus'
'sso'
'rupt'
'jóla'
'hlíf'
'extensive'
'draw'
'dans'
'cert'
'andan'
'analogue'
'afh'
'Wei'
'Velkomin'
'RM'
'Haemo'
'ðr'
'zard'
'symp'
'reyndist_'
'oxicam_'
'móte'
'konuna_'
'gjafar_'
'fínt_'
'fæt'
'blóðþurrð'
'belong'
'Ski'
'Kem'
'Clar'
'íni'
'ækni'
'árs_'
'vansköpun'
'uo'
'töldu'
'síldenafíl'
'smás'
'rós'
'prophe'
'perio'
'mörkuð'
'heyri_'
'fjarlæg'
'escape'
'bortezomib_'
'Pin'
'Def'
'Bil'
'Amo'
'Aft'
'Actually_'
'þjó'
'ö'
'unchanged_'
'rki'
'rant'
'pivotal_'
'nætur'
'hundrað'
'heimsku'
'addi'
'Swe'
'Poly'
'Mö'
'Cr'
'Bett'
'stungulyfs'
'meto'
'meina'
'matar_'
'levo'
'keto'
'inda'
'iku'
'hetj'
'heppi'
'fái_'
'ep_'
'citi'
'breytinga_'
'Son_'
'æki'
'vess'
'vann_'
'unds'
'skaut'
'requiring_'
'liðn'
'kat'
'investigated_'
'falls'
'dof'
'aminotransferase_'
'Sc'
'wel'
'tillit'
'tadalafil_'
'stro'
'spot_'
'sit'
'ræf'
'prófa_'
'poka_'
'metabolic_'
'háu'
'hitt'
'hamingju_'
'eding_'
'dags_'
'centr'
'by'
'bomb'
'blóðf'
'bee'
'aqu'
'Think_'
'Skoð'
'Lee_'
'KR'
'Gö'
'GAN'
'Appl'
'Administration_'
'”'
'tob'
'rilpivirine_'
'protocol_'
'plo'
'platelets_'
'hvol'
'glúkós'
'ddur_'
'containe'
'connecti'
'búnaður'
'aðsk'
'atu'
'TAN'
'Sund'
'Reyndu_'
'Lif'
'Frank'
'BCRP_'
'Animal_'
'Ala'
' & _'
'útb'
'tvíb'
'thir'
'teratogenic'
'svæðið_'
'róa'
'protective_'
'pren'
'original_'
'ngin'
'ndl'
'nauðsyn_'
'móðir_'
'mble'
'lát_'
'leyfi_'
'guide'
'gleyma_'
'fæ'
'örk'
'tíðni'
'tela'
'stafa'
'seró'
'opn'
'nia_'
'lst'
'killing_'
'hole_'
'hlutf'
'gic'
'fullkom'
'dib'
'datt_'
'bupr'
'aðri_'
'ange'
'analyse'
'Tam'
'Leita'
'Japan'
'English_'
' (> _'
'þvagræsilyf'
'ímynd'
'ávallt_'
'ánægj'
'yle'
'tuz'
'tale'
'skilgrein'
'rans'
'próteasaheml'
'kynf'
'insti'
'hönd'
'eysi_'
'drukk'
'depending_'
'dabigatran_'
'count'
'bóluefnið_'
'auðvitað_'
'alvarlegra_'
'Pad'
'Hægt_'
'Head'
'Compa'
'þjálf'
'ílát'
'álþynnu'
'warfarín'
'starf_'
'soli'
'snerta_'
'nant_'
'mæt'
'mutation_'
'löggu'
'hverf'
'himnu_'
'heimsókn'
'colla'
'blóðpr'
'anticoagulant'
'URE'
'McC'
'Lac'
'Ja_'
'Inte'
'Fé'
'06'
'þreytt'
'þol'
'þjálfa'
'ævin'
'vert_'
'stöðugu'
'siti'
'rða'
'pni'
'performance_'
'nina_'
'losun_'
'leysin'
'korna'
'jörð'
'iger'
'iforn'
'hjú'
'hið_'
'cytochrome_'
'blóðþrýsting_'
'Via'
'Cases_'
'Alt'
'wra'
'vitr'
'stood_'
'sterat_'
'malf'
'leysi'
'lda'
'inform_'
'fyrst'
'fit_'
'dreifi'
'document'
'diagnosis_'
'dau'
'ctu'
'HC'
'Chris_'
'Bólu'
'Ame'
'Þjó'
'trib'
'sþ'
'svæði'
'spí'
'ruin'
'rtu'
'núkleósíð'
'nav'
'mörk'
'misli'
'minnis'
'mill'
'heill'
'gráðu_'
'gigt_'
'fry'
'alvar'
'afmæli'
'Jim_'
'Brad'
'Abs'
'009_'
'ventricular_'
'undirbú'
'tropi'
'taldi'
'sulphonylurea_'
'lyfjameðferð_'
'lies_'
'leynd'
'keppni'
'hliðstæð'
'harg'
'haemodialysis_'
'army_'
'CN'
'56'
')-_'
'óní'
'ðm'
'taug'
'sulph'
'subcutaneously_'
'stea'
'skyld'
'rise_'
'póst'
'insufficient_'
'ih'
'hækkun'
'gus_'
'fix_'
'fault_'
'blæðinga'
'antigen'
'anlega'
'acce'
'Turn'
'RS_'
'Authorisation_'
'þoli_'
'óeðlileg_'
'ycl'
'unda'
'tjó'
'subset'
'stav'
'sple'
'sleeping_'
'mjó'
'fóstur_'
'eðlilegt_'
'exi'
'elta'
'einka'
'einhver'
'disk'
'benz'
'banka'
'Top'
'SVR'
'Overall_'
'Martin_'
'Gleym'
' % (_'
'ðferð_'
'secret_'
'samsetta_'
'polyethylene_'
'notend'
'nod'
'mob'
'loki_'
'lifrarsjúkdóm_'
'legg_'
'knock'
'inducers_'
'glinide_'
'farin_'
'details_'
'contraceptive_'
'cig'
'Way'
'Ref'
'106'
'áfyllta_'
'viol'
'utinib'
'tinn_'
'reat'
'playe'
'nánar'
'helmingunartími_'
'getnaðarvarnir_'
'force'
'flott_'
'cow'
'búning'
'bólusett'
'bréf'
'Ted'
'Lind'
'Epclusa_'
'Blo'
'Bene'
'% ('
'öldum_'
'Ý'
'vildagliptin'
'umbrotnar_'
'tolerated_'
'pathway'
'paliperidon'
'orðn'
'oku'
'noon_'
'includes_'
'helst'
'hat_'
'foreldra'
'dermat'
'derived_'
'Ther'
'Menn'
'Lof'
'Gaman_'
'FIR'
'Eftir'
'750_'
'172'
'óháð_'
'spila_'
'shl'
'samsvarar_'
'ordin'
'noted_'
'kúl'
'hvarfa'
'heart'
'fresta'
'ende'
'characteri'
'benefits_'
'banda'
'access_'
'Washington_'
'NSAIDs_'
'Lok'
'Jeff'
'H1'
'ENT'
'Avo'
'Adult'
'900_'
'ögð'
'prófi_'
'pene'
'les'
'langan_'
'irat'
'ip'
'haematological_'
'drátt'
'drepið_'
'corre'
'chlor'
'angioedema_'
'Höfu'
'Ant'
'örn'
'vessels_'
'source'
'passed_'
'mistake_'
'mannit'
'liði_'
'iona'
'gá'
'dihydro'
'contribut'
'bog'
'Mak'
'Coll'
'zu'
'trúi'
'trough_'
'rm'
'rly_'
'pað'
'morgni_'
'microgram_'
'lates'
'jam'
'inna_'
'immunoglobulin'
'hljót'
'gleymi'
'fðu_'
'frjáls'
'frammi'
'farga_'
'dne'
'ddi'
'conazole_'
'camera'
'boðið_'
'OAT'
'Leve'
'Detail'
'ítar'
'zzi'
'upr'
'swear_'
'stit'
'steal'
'spjal'
'prófun'
'nov'
'kalk'
'hringdi_'
'horses_'
'hjúkrunarfræðingi'
'hai'
'greiða_'
'flugvél'
'filmuhúðuðum_'
'cte'
'confirm'
'buxu'
'alt_'
'agl'
'Someone_'
'Elskan_'
'CA_'
'Bye_'
'AC_'
'zal'
'wonder'
'virkra'
'stic_'
'sorbit'
'natríums'
'natríumklóríð_'
'lágmark'
'laði'
'ipe'
'fri'
'ees_'
'difficult_'
'brisbólg'
'blóm'
'bann'
'avir_'
'Zy'
'Select'
'Miss'
'Exa'
'America_'
'199'
'áfylltar_'
'wind_'
'uncle'
'thinks_'
'sýk'
'suspe'
'sska'
'regulat'
'power'
'phr'
'orf'
'nr'
'litl'
'ingin_'
'indication_'
'inad'
'gamli'
'flozin'
'finally_'
'einkenna'
'dista'
'capa'
'björ'
'bastard'
'MM'
'CU'
'þrosk'
'íska'
'yn_'
'ungum_'
'tain_'
'svik'
'simvastatin_'
'sham'
'reme'
'professionals_'
'nsu'
'gently_'
'exercise_'
'close'
'chic'
'blad'
'aspart'
'Taka_'
'Stre'
'Peri'
'International_'
'Het'
'Fara'
'ósam'
'veikl'
'sake_'
'pst'
'osf'
'mínútna_'
'mela'
'mac'
'lækninga'
'lfa'
'infe'
'iat'
'glycaemia_'
'ght'
'geislun'
'fail'
'circu'
'cana'
'aðferð_'
'Tol'
'NS5'
'Merc'
'IX'
'ðle'
'zer'
'wake_'
'text'
'skertr'
'rrho'
'rnun'
'pic_'
'nding_'
'líða_'
'kett'
'högg'
'gate_'
'fylgd'
'eituráhrif'
'cont'
'buvir'
'RT_'
'HI'
'É'
'yer'
'wer_'
'tenn'
'sögu'
'safn'
'mole'
'meðferðarl'
'meðferð'
'graft'
'equal_'
'elds'
'activities_'
'Vatn'
'Somebody_'
'Frá'
'Crohn'
'Bern'
'# _'
'ínó'
'ung_'
'tof'
'tavi'
'smart_'
'sambærileg'
'rð'
'ræs'
'obe'
'levetiracetam_'
'issue'
'ined_'
'ils_'
'hæfile'
'draw_'
'bót'
'agn'
'ína_'
'æðis'
'separat'
'poieti'
'patho'
'lasi'
'kno'
'innrennslislyf'
'fj'
'component_'
'bus_'
'berst_'
'bep'
'attr'
'amer'
'alf'
'acter'
'USE'
'Pain'
'PR'
'Long_'
'Leave_'
'Gangi'
'Fee'
'CS'
'þreytu_'
'tori'
'stóð'
'skugga'
'seint_'
'míkrógr'
'kröf'
'heild'
'grey'
'geisla'
'females_'
'cob'
'caught_'
'any'
'Slepptu_'
'Eur'
'1A'
'Þrj'
'vanc'
'unnt_'
'söm'
'stæ'
'sjúkra'
'sjálfsvígs'
'rifa'
'prótín'
'provide'
'nálinni_'
'neighbo'
'meðferðartíma'
'mest_'
'ler'
'gor'
'gon'
'gló'
'dela'
'ature'
'Israelites_'
'Dir'
'CV_'
'CK'
'Blan'
'þekkta'
'yfja'
'wave'
'uppg'
'opinber'
'mánuð_'
'males_'
'júg'
'hópa'
'drunk_'
'cular_'
'bóluefn'
'Xi'
'Simon'
'Byrj'
'107'
'úbín'
'öndunarveg'
'ypt'
'vöðvum_'
'undergoing_'
'svepp'
'supply_'
'protect'
'húðb'
'hormón'
'hegðun_'
'eykst_'
'einstakling'
'bati'
'Should_'
'Carr'
'61'
'οu'
'úd'
'tma'
'relax'
'proce'
'nýjan_'
'named_'
'minna'
'lua'
'kuna'
'investigati'
'framar_'
'exce'
'afk'
'Resu'
'Fred'
'FO'
'DC_'
'CTC'
'Base'
'ópín'
'tak_'
'suggesti'
'sending'
'rauðra_'
'otide_'
'jud'
'greið'
'gigtarlyf'
'ful'
'eyt'
'elevat'
'dden'
'cong'
'cart'
'buty'
'birthday_'
'TAX'
'Georg'
' ↑ _'
'þýði_'
'vernda'
'tl'
'lagð'
'jör'
'indinav'
'hú'
'félag'
'enrolled_'
'ect_'
'burning_'
'bly'
'aware_'
'arme'
'Jose'
'EA'
'Bee'
'B6_'
'Alls_'
'102'
' +_'
'ída'
'áætlunin'
'veitir_'
'vak'
'trau'
'rán'
'rkur_'
'razole_'
'qual'
'occurrence_'
'north'
'lymphoma_'
'ligg'
'kiss_'
'júkdómu'
'júkdóma_'
'heimt'
'eðlilegu'
'cat_'
'carba'
'blæðingum_'
'Jor'
'wild_'
'was'
'tilt'
'svæ'
'svipaða'
'pooled_'
'lagæð'
'indi_'
'ics_'
'ford_'
'fellow'
'Visu'
'OCT'
'Benjam'
'Aukin_'
'Apr'
'áframhaldandi_'
'títan'
'teppu_'
'stat_'
'skelf'
'reu'
'raða_'
'raltegravir_'
'rae'
'ofsabjúg'
'lykj'
'heilbrigð'
'bacteri'
'South'
'Eb'
'CrC'
'±'
'vatnsfrí'
'uter'
'ugl'
'sló'
'shoe'
'réttu_'
'ormón'
'monthly_'
'mmy_'
'mats'
'illu'
'got'
'gerði'
'fs'
'eutical'
'ending'
'dræ'
'discolour'
'dese'
'byggi'
'bundin_'
'ampoule'
'Nau'
'Jones_'
'Alle'
'47'
'" '
'þu'
'íði'
'svita'
'secu'
'mest'
'leysis'
'hóf'
'hygg'
'diagnosed_'
'ctive_'
'busy_'
'afe'
'Whi'
'Setjið_'
'OPA'
'Film'
'CYP2C8_'
'110_'
'óði'
'æja'
'utin'
'urge'
'tapp'
'mur'
'inhale'
'hópinn_'
'hjartadrep_'
'góm'
'fullorðin'
'dir'
'degree_'
'chicken'
'ból'
'bros'
'bjór'
'begin_'
'amed_'
'Spra'
'Pioglitazone_'
'Pers'
'Gastro'
'... ..'
'þyk'
'ælu'
'telja'
'ráðst'
'ote_'
'mycin_'
'inci'
'húðs'
'erfiðleikar_'
'eras'
'egg_'
'ear_'
'dim'
'bíll'
'aul'
'activat'
'Telmisartan_'
'Ron'
'Looks_'
'Hækku'
'Hall'
'Frequenc'
'Doug'
'örun'
'xia'
'virðing'
'vanda'
'tory_'
'ráða'
'nátt'
'megi_'
'gunar'
'bli'
'Vik'
'Step_'
'Smith'
'Rh'
'IgG_'
'GIO'
'Care'
'öpum_'
'xib_'
'viðbótar'
'tímabundið_'
'simpl'
'secret'
'saur'
'prescription_'
'pakkningum_'
'nnun'
'nlegt_'
'leyni'
'jóna'
'itute'
'idea'
'hi_'
'gul_'
'forgot_'
'flu_'
'fals'
'eldur_'
'dagsetning'
'color'
'Rick'
'Gol'
'Caelyx_'
'Adam_'
'þver'
'yfirv'
'ungi'
'terifl'
'smaður_'
'salts'
'pip'
'ound_'
'osin'
'máttu'
'mutations_'
'lög_'
'kallaði'
'hreyfingu'
'helg'
'fjandi'
'eous_'
'enge'
'comple'
'Upp_'
'Fir'
'Abraham'
'þáttu'
'þró'
'óttast_'
'yra'
'vís'
'vig'
'töflunni_'
'sthe'
'soldier'
'ráðleggingar_'
'raun_'
'paz'
'option'
'nýbur'
'national_'
'myrk'
'líst'
'hrifinn_'
'fréttir_'
'faeces_'
'carbamazepine_'
'attempt'
'anywhere_'
'Det'
'2a_'
'α_'
'ætlarðu_'
'átt'
'viðh'
'stungulyfi_'
'stofnfrum'
'steroid'
'sensation_'
'rim'
'pand'
'nefni'
'metra_'
'lowe'
'kassa'
'itat'
'hjartal'
'glor'
'gler_'
'gina'
'decided_'
'cris'
'YE'
'TYSABRI_'
'Moni'
'Jun'
'Jafnvel_'
'úts'
'yi'
'wedding_'
'warm_'
'vél_'
'virki'
'vati'
'vaf'
'ubó'
'tækis'
'training_'
'tengs'
'sæki'
'spend_'
'oga'
'miðju'
'lyt'
'kvenna_'
'hópur'
'hlað'
'gáfu'
'fjórð'
'eyj'
'etr'
'differ'
'dac'
'congesti'
'byssu_'
'blóðsykurslækk'
'Nauðsyn'
'HR'
'Forðast_'
'Dor'
'tine'
'rofi'
'produce_'
'oxida'
'mortality_'
'manst'
'hry'
'gy_'
'frásogast_'
'fleyg'
'contraceptives_'
'comme'
'blan'
'atazanav'
'adapter_'
'Possi'
'Getum_'
'somnolence_'
'slegl'
'skinn'
'sitja_'
'saml'
'process_'
'náunga'
'nature_'
'innan'
'impress'
'hýdrat'
'graphic'
'flet'
'dress_'
'create'
'bráðaofnæmis'
'aðlögu'
'aud'
'atrop'
'antia'
'XI'
'OATP1B'
'Median_'
'Aust'
': “_'
'þessir_'
'úta'
'írí'
'æti'
'væð'
'vitni'
'tical'
'prazole_'
'pper'
'malignanc'
'lengd'
'lain'
'júk'
'juice_'
'ink_'
'höfn'
'finn'
'fan_'
'conve'
'build_'
'aðstoð_'
'Symptom'
'Rela'
'Prepar'
'Hell'
'Faðir_'
'ED_'
'Amb'
'tou'
'supportive_'
'skóla_'
'raka'
'oint'
'möguleik'
'miles_'
'lone'
'kunni'
'inhibit'
'höfði'
'desire'
'blandað'
'barnshafandi_'
'Try_'
'Tarceva_'
'Jós'
'Fjöldi_'
'CellCept_'
'012'
'ðh'
'íh'
'wn'
'vidon'
'ures_'
'till'
'stríði'
'spring_'
'ques'
'pathy_'
'notanda'
'mæta'
'midi'
'líka'
'leuko'
'invit'
'hatt'
'framleiðslu'
'fjölsetra_'
'dón_'
'ding'
'destroy'
'deco'
'bósentan'
'augan'
'UL'
'May'
'Carb'
'BP'
'010_'
'úrón'
'zídóvúdín'
'wri'
'tökum_'
'tímabundin'
'transporter'
'tion'
'tilkynna_'
'takmarkaða'
'setu'
'oon'
'mánuð'
'kærast'
'imm'
'imat'
'græð'
'greinin'
'ggl'
'fræðilegu'
'deal'
'consum'
'VIA'
'SPR'
'SB'
'Hringd'
'Hol'
'GAR'
'varia'
'truck_'
'titanium_'
'styð'
'ssan'
'sprengju'
'smok'
'rheumatoid_'
'pm'
'mögulega_'
'lyfleysuhóp'
'lr'
'leukaemia_'
'irri'
'ipl'
'heat_'
'gjört_'
'ety_'
'esa'
'eftirtal'
'blóðflögu'
'bik'
'beta'
'aripiprazole_'
'agli'
'Dj'
'Alveg_'
'72'
'áfengis'
'viðmið'
'veira'
'tropin_'
'toga'
'súrefni'
'smám_'
'skyndileg'
'skilu'
'sinna_'
'saga_'
'ounce'
'omb'
'maternal'
'justi'
'hugs'
'herin'
'gem'
'fræð'
'ffer'
'endaþarm'
'dagleg'
'cýtók'
'brúðkaup'
'beinmergs'
'bata_'
'augnablik'
'ache_'
'VER'
'MedDRA_'
'Húð'
'Ever'
'Cut'
'yell'
'vernda_'
'talked_'
'suppose_'
'prete'
'plate_'
'plan'
'ormation'
'monkeys_'
'mir_'
'metformíni_'
'lokað_'
'ljósi'
'ized_'
'gruna'
'genic_'
'féll'
'forðat'
'enz_'
'citr'
'capecitabine_'
']) _'
'Combi'
'73'
'taxel'
'strat'
'stole'
'salt_'
'rn'
'persistent_'
'modification'
'lympho'
'home'
'götun'
'glö'
'gib'
'cker'
'bjar'
'anxiety_'
'Twi'
'Trizivir_'
'Pres'
'North'
'Meiri'
'Holy_'
'54'
'áfa'
'wash_'
'unf'
'trum'
'stórum_'
'staðset'
'sjúkl'
'rock_'
'rhythm'
'real'
'numb'
'minimi'
'krist'
'kes_'
'hljóm'
'heildarlifun_'
'fallega'
'fall'
'direct'
'clea'
'borgað'
'beyg'
'Remicade_'
'Jacob'
'Hill'
'Clo'
'Allar_'
'%; _'
'þynn'
'örvun_'
'wonder_'
'viva'
'stærð'
'shoot'
'quick_'
'pancrea'
'orbat'
'od'
'notaðir_'
'neyðar'
'losing_'
'innrennslislausn'
'hjartsláttartrufl'
'ettu'
'einstaklings'
'coho'
'bris'
'bought_'
'blood'
'SE_'
'Orga'
'Manu'
'63'
'þo'
'wy'
'uppbótar'
'tryggi'
'taugak'
'sumar'
'storkuþætti_'
'shaf'
'rús'
'rota'
'reci'
'prins'
'phar'
'member'
'lögg'
'lymphocyt'
'llinn_'
'kvillar_'
'kalaemia_'
'instead_'
'hlaupi'
'grin'
'einl'
'chrom'
'casp'
'caf'
'bíla'
'bróm'
'alpha_'
'Incre'
'Additional'
'AUT'
'↔ _'
'ÐA_'
'ylat'
'verkjum_'
'toci'
'tifi'
'terms_'
'spurningar_'
'skeletal_'
'sannleikan'
'raðbrigða_'
'prob'
'kynn'
'klínískra'
'kaflan'
'hunt'
'gives_'
'erecti'
'dn'
'cil_'
'attack'
'ammt'
'Gefið_'
'Europe_'
'C2'
'þæg'
'árið_'
'ysi_'
'with'
'vætt'
'tunn'
'totally_'
'test'
'spill'
'sjúkdóma'
'rm_'
'naður_'
'miða_'
'lyfjafor'
'lokin'
'ljúk'
'intensi'
'eitrunar'
'cke'
'blóðþrýstingslækkandi_'
'atvi'
'ats'
'adhe'
'abel'
'Ter'
'Sin'
'Lie'
'varstu_'
'urin'
'tingu'
'systur_'
'stuðning'
'stuðl'
'steroid_'
'smil'
'search'
'scor'
'reki'
'proportion'
'pinn'
'peninga'
'nefn'
'moc'
'lenalidomide_'
'leiddu_'
'ladies_'
'ian'
'fosa'
'evaluation_'
'dapagliflozin_'
'cream_'
'contract'
'calm_'
'behav'
'aug'
'Whoa_'
'Pharmac'
'Jess_'
'Air'
'íki'
'sýkinga_'
'parts_'
'niðurstað'
'lfin'
'igu'
'hurry_'
'fól'
'ergi'
'entr'
'endurtekin'
'dispose'
'crit'
'blóðsykur_'
'binding'
'Inv'
'≥ _'
'þrátt_'
'áve'
'viðhalda_'
'unco'
'skell'
'skammvinn'
'reit'
'pta'
'practice_'
'otecan_'
'mótefnav'
'murder'
'mov'
'loose'
'letter_'
'lausu'
'karlkyns_'
'grö'
'fulla'
'decre'
'cket'
'aria'
'Whe'
'Upphaf'
'Spri'
'Medicinal_'
'Hugsanlega'
'Brj'
'%);'
'ílík'
'stífl'
'strong'
'skú'
'seðil'
'relevance_'
'purpose'
'predniso'
'pramipex'
'nns'
'ljúf'
'large'
'komn'
'initiating_'
'hrædd_'
'hirð'
'heildars'
'fela_'
'ense'
'endar'
'eigið_'
'consideration_'
'clon'
'cisplat'
'bila'
'Sarah_'
'Plasma'
'Increased_'
' %)'
'Þynn'
'zan'
'umbúð'
'summar'
'stelpa_'
'smita'
'sjónt'
'sega'
'samning'
'rome'
'phin'
'nve'
'noi'
'nah'
'motherfuck'
'langað'
'kkun'
'hamlar_'
'genicity_'
'gefi'
'gate'
'fighting_'
'erði'
'cirrhosis_'
'cher'
'believe'
'apín'
'Tex'
'Manage'
'Einst'
'útt'
'áfengi_'
'stork'
'ræði_'
'require'
'lögreglun'
'lycerid'
'kól'
'kemmd'
'ilun_'
'ians_'
'fella'
'extra_'
'exo'
'endapunktur'
'conventional_'
'barkstera_'
'adeno'
'TP'
'Proto'
'PAR'
'Neb'
'Anna_'
'350'
'ýsa_'
'Út_'
'tvöfald'
'traine'
'skilgreind'
'security_'
'quant'
'membrane'
'lyft'
'loo'
'hámarki_'
'cam'
'barbital_'
'arrive'
'Yfirl'
'Rétt'
'Nokk'
'MC'
'Karl'
'Immuno'
'Blæðing'
'Amy'
'77'
'vöðvaverk'
'tengdi'
'tap_'
'tage'
'start'
'skila_'
'sei'
'lsk'
'loxa'
'lio'
'kjöt'
'heim'
'gætt'
'gne'
'gad'
'fylli'
'friði_'
'ensive_'
'cutaneous_'
'conclu'
'clock'
'borin'
'RS'
'Lest'
'ION_'
'Egypt_'
'þynningu_'
'æðu'
'árs'
'tiredness_'
'staðbundn'
'skipi'
'segavarnar'
'ræði'
'nuna'
'ndrón'
'kóbísistat'
'klú'
'infa'
'hugsanleg_'
'gamall_'
'fæðar'
'flestum_'
'discuss_'
'Id'
'Hydrochlor'
'450_'
'sykur'
'svarar_'
'pep'
'kort_'
'ission_'
'hyp'
'foetus'
'ease_'
'drengur_'
'cýkl'
'cula'
'criteria_'
'blóðrannsókn'
'andleg'
'Ok'
'OUTER_'
'Hep'
'Frakk'
'Eigi'
'CHAMPIX_'
' {_'
'þurrk'
'wine_'
'urea'
'uld'
'tíð'
'tækj'
'tning'
'tilhneiging'
'tengt_'
'sustained_'
'staðfesta_'
'snj'
'sal_'
'resid'
'prost'
'posi'
'oct'
'nefi'
'mofetil_'
'meðferðarlotu'
'lenses_'
'inity_'
'hægðatregða_'
'hindra'
'dreifing'
'crush'
'choose_'
'asl'
'apart_'
'Vinsamlega'
'Thro'
'Leflunomide_'
'Good'
'Fy'
'Bell'
'98'
'útilok'
'óat'
'yfirgef'
'uty_'
'tubul'
'tingar'
'spur'
'sagð'
'oðu'
'ndro'
'lagðar_'
'köku'
'kyss'
'klikk'
'jóð'
'ify'
'gle_'
'glarg'
'fyll'
'fnum_'
'fluor'
'experienc'
'comparat'
'auðvelda'
'alþjóðleg'
'affects_'
'Ratio'
'Duo'
'ónæmiss'
'ætli'
'trav'
'stungustað'
'snið'
'ofnæmisviðbrögðum_'
'ntan'
'immunosuppressi'
'hugmynd'
'hreinsa'
'gia_'
'formal'
'fleir'
'fjölgun'
'finger_'
'filmu'
'evaluate_'
'assign'
'advan'
'Thy'
'Nin'
'Mars'
'Louis'
'vildir_'
'uca'
'tilvik'
'taugakvill'
'tate'
'söng'
'stjórnar'
'quiet_'
'miss'
'langu'
'húðar_'
'foot'
'fna_'
'fasti'
'einhverja_'
'eika'
'efnis_'
'education'
'dæmi_'
'dara'
'commande'
'colour'
'astat'
'William_'
'Twe'
'LS'
'Ken'
'Gerð'
'Fat'
'Daniel'
'Charles_'
'Alv'
'áhald'
'tyl'
'tional'
'shin'
'sell'
'sap'
'otte'
'nokkurn_'
'measure_'
'lyfjapenni'
'kvenkyns_'
'fyrirm'
'fræg'
'blóðþéttni'
'Walter_'
'Skilurðu_'
'Bandaríkja'
'órn'
'Úr'
'vísinda'
'vissir'
'verte'
'tant'
'sjúkrahúsi'
'rrhag'
'rox'
'refu'
'mira'
'mannainsúlín'
'learn'
'iou'
'hylkju'
'hjálparefnanna_'
'dali'
'carb'
'bún'
'breið'
'aspartat'
'activated_'
'Last_'
'INTE'
'CoA'
'óví'
'æðing'
'worried_'
'spond'
'rone_'
'rannsókna'
'ont'
'normali'
'komum'
'kera'
'insu'
'inject'
'hátt'
'hydroc'
'brothers_'
'atten'
'angel'
'Tit'
'Samantekt_'
'SM'
'Jack'
'Hoo'
'Dæ'
'ADH'
'07'
' (>_'
'vórikónazól'
'virkum_'
'solutions_'
'setti_'
'rgi'
'raut'
'mmu'
'midazolam_'
'marr'
'lkan'
'ight'
'ibs_'
'hækkað_'
'confidence_'
'cake'
'bíður_'
'bert'
'bera'
'bank_'
'aleg'
'alb'
'afbrigði'
'Swi'
'Prov'
'Ec'
'örlítið_'
'Óg'
'walk'
'verkar_'
'verb'
'tæm'
'subgroup'
'silic'
'rín'
'reverse_'
'recent_'
'möguleika_'
'míð'
'mass_'
'manne'
'lands_'
'krem'
'kjarna'
'heilbrigði'
'gildandi_'
'eist'
'claim'
'búl'
'anta'
'Vinc'
'Kaplan_'
'Fylgi'
'FACT'
'Dude_'
'ýkingar_'
'zó'
'verkanir'
'urit'
'slökk'
'skammtapok'
'resum'
'recovery_'
'pag'
'nafni'
'metformín_'
'leyfa_'
'kúpt'
'gæs'
'guð_'
'equate'
'distri'
'cata'
'blóðstork'
'blandað_'
'arrhythmia'
'abso'
'Sjúklingum_'
'RELE'
'Pull_'
'Multip'
'Hámarks'
'Frábært_'
'þekkt'
'ðru'
'ulati'
'rivaroxaban'
'rdin'
'nth'
'mod_'
'leiðandi_'
'kvöldi_'
'inform'
'héldu_'
'galla'
'epit'
'enor'
'eiginleika'
'determine_'
'carbo'
'TC'
'Spec'
'Epi'
'Cardi'
'Abi'
'? !'
'ögn_'
'zen_'
'warrant'
'skyndilega_'
'skeið'
'ruct'
'rescue'
'ntly_'
'nstu'
'meng'
'kidneys_'
'itraconazol'
'itinib_'
'hugsanlegr'
'hjón'
'gluco'
'gender_'
'fly'
'erta'
'dish'
'daga'
'bie'
'Scott_'
'Rat'
'Flex'
'íka'
'víri'
'unda_'
'ugg'
'tri_'
'shell'
'routine'
'receptors_'
'ody'
'neurol'
'lyfjas'
'lini'
'ilt'
'hire'
'glucuron'
'fórst'
'engum_'
'cerebr'
'association_'
'alen'
'SA_'
'Poo'
'NSA'
'Honey_'
'Gjöf_'
'Chan'
'íko'
'´_'
'xet'
'vikuleg'
'vaxtarh'
'tvíhýdr'
'tter_'
'sýkl'
'sambærileg_'
'production_'
'perat'
'orders_'
'mica'
'klæð'
'jak'
'interruption'
'ically_'
'hitti'
'hemli_'
'fina'
'feni'
'confusion_'
'catheter_'
'býð'
'breast'
'atini'
'algeng_'
'Vers'
'Run'
'Prom'
'Leg'
'Didn_'
'Conne'
': ↓ _'
': + _'
'örn_'
'vitið_'
'undirliggjandi_'
'stökkbreytingu'
'regla'
'phosphat'
'ovir'
'omu'
'ogen_'
'ningi'
'lygi'
'inson'
'idiot'
'grunnlínu_'
'gemc'
'fis'
'feld'
'failed_'
'exceed_'
'emerg'
'dut'
'chem'
'cepti'
'calculate'
'brauð'
'Strák'
'State_'
'Safety_'
'ORE'
'Loka'
'ðarl'
'töfluna_'
'són'
'síum'
'stjörnu'
'smoking_'
'skun'
'rior'
'permi'
'nil'
'necrosis_'
'meltingar'
'marki'
'líkt_'
'iri'
'ilk'
'hýdrók'
'framtíð'
'entra'
'emt'
'elf'
'egar'
'drops_'
'brea'
'Syst'
'Recor'
'Over_'
'Líti'
'Inh'
'IC_'
'Harvoni_'
'Fun'
'Four_'
'Aro'
'Adva'
'104_'
'óveruleg'
'verku'
'verkja'
'turnin'
'sérfræðing'
'sync'
'stakur_'
'schedule'
'roll_'
'quickly_'
'mætt'
'lyfjagjafa'
'lawyer'
'klukkustundum_'
'innihald_'
'icas'
'húðþ'
'hjar'
'ensi'
'ekt'
'einfal'
'efnaskipt'
'dái'
'dauði'
'Varst'
'Thomas_'
'Sex'
'Ses'
'Gy'
'Asse'
'ylg'
'talk'
'svipað_'
'spontaneous'
'sorbat'
'sat_'
'reynt_'
'rank'
'pem'
'pakk'
'open'
'losu'
'kulda'
'kktu_'
'kas'
'irt'
'innri_'
'ikt'
'hrei'
'herpes_'
'heimi_'
'gjöf'
'empagliflozin'
'clots_'
'checked_'
'batter'
'Takmarkaðar_'
'Little_'
'IÐ'
'Egyptaland'
'Aldrei_'
'úp'
'én'
'vastat'
'stem'
'skrán'
'skerðing'
'sjúkdómsins_'
'prep'
'obutyl_'
'microbi'
'lokas'
'layer_'
'joy'
'interferon'
'intake_'
'geim'
'fool_'
'excess_'
'erfi'
'eda'
'achieve_'
'WHO_'
'Sýking'
'NovoT'
'Kona'
'Góðan_'
'Fli'
'Emp'
'ömmu'
'ínur'
'éð'
'æxla'
'yme'
'veg'
'tilv'
'teach_'
'squ'
'serious'
'season'
'reidd'
'raised_'
'pólýetýlen'
'prise'
'oB'
'náungi'
'metri'
'menta'
'mazep'
'lte'
'llað'
'lengra_'
'krakkar'
'klukkustund_'
'kkin'
'kerfis'
'indicati'
'hægðum_'
'hed_'
'hearing_'
'fyrirf'
'epilepsy_'
'chas'
'bum'
'brotthvarfs'
'bec'
'Nýja'
'Kann'
'Joey_'
'IVE_'
'Enn_'
'Damn_'
'viðt'
'smi'
'sjúklingnum_'
'servant_'
'sermisgerð'
'periodic'
'ov'
'meðt'
'hóp_'
'hinna'
'hata_'
'greina'
'geðrof'
'frétta'
'fe_'
'dauðsföll'
'cytop'
'Vil'
'Sei'
'Prote'
'Ph_'
'Brit'
'útg'
'versna'
'surgical_'
'scular_'
'rl_'
'pioglitazón'
'pigs_'
'krefur_'
'joke'
'ines'
'hamingju'
'fóta'
'figure'
'envi'
'custo'
'crime'
'coma_'
'Sand'
'Fred_'
'Cam'
'CER'
'≤_'
'öt_'
'ónæmisb'
'áði_'
'yf_'
'unusual_'
'unused_'
'srannsókn'
'sions_'
'segðu_'
'samans'
'pharmacolog'
'ossed_'
'nsive_'
'mediat'
'loks'
'lfr'
'lens_'
'kos'
'jafngild'
'höfðing'
'hurð'
'hundur'
'engra'
'elskar_'
'eiki'
'distr'
'bráð_'
'beer_'
'Press'
'Litl'
'FSH_'
'Dur'
'útí'
'zoledronsýr'
'xif'
'veisl'
'ulcerati'
'stöðin'
'slembiröðuð'
'sita'
'rth'
'quat'
'pro_'
'prevent'
'prese'
'possess'
'pleas'
'master_'
'heilbrigðisstarfsfólk'
'heads_'
'headed'
'han_'
'frjó'
'fresh'
'freez'
'flöskun'
'fengu'
'enó'
'elskað'
'blóðtappa'
'anni'
'Zin'
'States_'
'Mea'
'LEN'
'ími_'
'Þegiðu_'
'Ól'
'zza'
'uþ'
'tvíoxíð_'
'trastuzumab_'
'séu'
'stýri'
'stökum_'
'silf'
'pitat'
'ore_'
'nægja'
'nileg'
'hist'
'ell'
'egr'
'drottn'
'dreym'
'diff'
'deman'
'cyste'
'counte'
'byl'
'bubble'
'bilun_'
'azep'
'agen_'
'Zon'
'Sh'
'Instructions_'
'Fræ'
'Ama'
'Abso'
'ALL_'
'130'
'þurrku'
'þröng'
'viso'
'terminal_'
'tekni'
'skorpulifur_'
'skjald'
'replace'
'oxet'
'ogra'
'lera'
'jack'
'glyco'
'foo'
'feta'
'dómar'
'dopa'
'cín'
'cup_'
'aripíprazól'
'Skin_'
'Serious_'
'Lyfjastofnunar_'
'ECDC_'
'Count'
'ífe'
'áðu_'
'xp'
'tute'
'tad'
'sýning'
'sent'
'properties_'
'practi'
'oth'
'nokkr'
'myndi'
'motor'
'milljónir_'
'klof'
'ier_'
'formula'
'bardaga'
'agree_'
'Roger'
'Pregnan'
'Kep'
'ION'
'Harri'
'útbrot'
'Ísraels_'
'valen'
'vakt'
'upset_'
'svefnl'
'skepn'
'ráðlögðum_'
'rona'
'oxygen'
'nleg_'
'mps'
'modified_'
'mentioned_'
'meltingartrufl'
'leader'
'idd'
'gjöri'
'dies'
'colon'
'behaviour_'
'beat'
'amínótransferas'
'Uni'
'OP_'
'Kær'
'Fyrst_'
'íse'
'zom'
'vinkon'
'thia'
'strai'
'stjórna'
'specif'
'roll'
'refle'
'gult_'
'birtist_'
'appreciate'
'aband'
'Forg'
'EL_'
'E2'
'þekki'
'vou'
'ungbörnum_'
'tækni_'
'súkr'
'synthe'
'stress'
'sjaldgæf_'
'settle'
'rým'
'ops'
'opinni_'
'minimum_'
'liðum_'
'jö'
'iri_'
'instru'
'höfðingja'
'fjandanum_'
'feit'
'deyr'
'dextr'
'deserve'
'cki'
'berj'
'arleg'
'afle'
'accumulation_'
'Want'
'VIÐ'
'PVDC_'
'Care_'
'Bec'
'ör_'
'vörum_'
'ungur_'
'pale'
'notkunar'
'nel'
'mínútu_'
'macul'
'juv'
'hvíl'
'fse'
'effective'
'edge'
'chemical'
'báða'
'bug'
'boa'
'berkla'
'angs'
'alr'
'NRTI'
'Mix2'
'Gera'
'Gentl'
'Appro'
'APEX'
'veirufræðileg'
'unit'
'tachy'
'svir_'
'stækk'
'stakan_'
'sannarlega_'
'rri'
'retention_'
'race'
'publi'
'pping_'
'pharmacological'
'moved_'
'mom'
'metaboli'
'mast'
'highest_'
'etning_'
'einmitt_'
'chea'
'búnaðin'
'broncho'
'andar'
'VO_'
'Tac'
'Síða'
'Response_'
'PML_'
'Mikilvægt_'
'Heart'
'_'
'ö_'
'ðra'
'sprautun'
'réð'
'program_'
'priest_'
'ols_'
'mikilvægu'
'mana'
'ját'
'integr'
'indæl'
'hylkin'
'had'
'fs_'
'eym'
'ern_'
'azó'
'Six'
'Sab'
'Kall'
'Heit'
'Haf'
'France_'
', -'
'% '
'ýkingu'
'ót_'
'zem'
'takmörkuð_'
'styrkleika'
'skyns'
'ráðleggja_'
'request'
'reiði_'
'pris'
'mess_'
'matarlyst_'
'lágþrýsting'
'lyk'
'leysa'
'kv'
'ining_'
'inferior'
'hljómar_'
'færas'
'frændi_'
'framkvæmda'
'foil_'
'elda'
'ei_'
'dreams_'
'bolus_'
'blöndun'
'batch_'
'  _'
'úð_'
'tilteki'
'selective_'
'rule'
'qualit'
'psychi'
'pancreatitis_'
'nærri_'
'llation_'
'lido'
'kón'
'join_'
'ischaemi'
'infecti'
'hní'
'herl'
'hentar_'
'garðin'
'freak'
'fagna'
'etic_'
'erc'
'destroy_'
'depart'
'alvarlegri_'
'Water'
'Um'
'Stungulyf'
'Reynd'
'ICA'
'þvaglát_'
'óvi'
'uppli'
'tækifæri'
'tengsl_'
'tast_'
'sýktu'
'stórt_'
'peningu'
'pani'
'palm'
'oci'
'mörkum_'
'mya'
'meðferðin_'
'mass'
'heig'
'guns'
'gefnu'
'declare'
'ctin'
'bear_'
'aðgerðir_'
'alið'
'albumin_'
'Riv'
'E42'
'Cri'
'Ano'
'Alge'
'..."'
'útsetningar_'
'áu'
'xel'
'ungu'
'svæf'
'smeðferð'
'skref_'
'réttan_'
'public_'
'own'
'náttúruleg'
'numbers_'
'nnin'
'naltrex'
'munn_'
'lofað'
'langtíma_'
'iness_'
'ida_'
'hugsan'
'hit'
'gengi'
'garna'
'efs'
'ection'
'doubt'
'crea'
'blóðsý'
'baks'
'aðgang'
'asis_'
'arch'
'alkóhól'
'Zonegran_'
'VF'
'FBI_'
'011_'
'β'
'át_'
'ull_'
'suppression_'
'ssor'
'restr'
'reacti'
'ppy_'
'persónule'
'orta'
'oka'
'ocri'
'kasta_'
'hvítum_'
'heno'
'hefðbundinn'
'engd'
'ecte'
'dval'
'damaged_'
'bóka'
'auðvelt_'
'RR'
'Cyr'
'COP'
'Amm'
'þarftu_'
'ýd'
'úkdóm'
'óetín'
'wide_'
'vict'
'undesirable_'
'umhverfi'
'slegi'
'miði'
'lung'
'leyst'
'levó'
'lation_'
'ix'
'inib'
'hring_'
'hlöðu'
'hjá'
'helmingunartíma'
'heilan'
'gangast_'
'free'
'flau'
'fjöls'
'feg'
'epileptic'
'density_'
'clos'
'brigði'
'barb'
'atta'
'Tenofovir_'
'TD'
'Stri'
'Ráðlagt_'
'RE_'
'Magn'
'Jerry_'
'Frú_'
'Epoetin_'
'Duloxetine_'
'Augu'
'þyngdaraukning'
'öðruvísi_'
'ísa'
'æling'
'tvís'
'sigur'
'róte'
'prison_'
'ofurs'
'notaða'
'ngas'
'nephro'
'moth'
'mitt'
'medac_'
'lágmarks'
'lling_'
'kalíum_'
'igna'
'hio'
'heimili'
'heilablóðfall'
'gengu_'
'fylgst_'
'fractures_'
'falla_'
'dyspn'
'byrjað'
'alvarleika'
'accompan'
'Total'
'SmPC_'
'Skert_'
'Pure'
'Powder_'
'Lö'
'Líttu_'
'Glo'
'Finnst_'
'Bol'
'áþ'
'usta'
'steri'
'onary_'
'nks'
'miðlu'
'mening'
'lagið_'
'hjálpar'
'glæru'
'fork'
'finger'
'ession'
'equipment_'
'dás'
'drekk'
'ddu'
'affecti'
'abr'
'Umb'
'Thou'
'Light'
'Ker'
'Gall'
'ðfe'
'xaf'
'vök'
'töfr'
'tímanum_'
'nitro'
'natríumk'
'mali'
'link'
'jað_'
'jan_'
'inv'
'imagine'
'icu'
'dark'
'corner'
'colour_'
'bundinn'
'brjóstakrabbamein_'
'bother'
'born'
'alir'
'UC'
'Flott'
'England'
'Els'
'Bas'
'þykkt_'
'ára'
'ynning'
'verkjalyf'
'tilvika_'
'tengin'
'oro'
'nægilega_'
'neysl'
'nari'
'murder_'
'líkamsh'
'luti'
'lp'
'litli_'
'köllu'
'intramuscular_'
'induce'
'gæti'
'fljúg'
'ferr'
'diuretics_'
'burða'
'bile_'
'augnþ'
'ará'
'arett'
'aran'
'akl'
'UPPLÝSINGAR_'
'Talað'
'Mm'
'Holl'
'French'
'Compl'
'Card'
'82'
'óhó'
'óbreytt_'
'ðn'
'áttir'
'Þei'
'varf'
'uge'
'ttle_'
'tilg'
'suffer_'
'stól'
'sman'
'skjálfti_'
'sitagliptin_'
'propo'
'phys'
'nted_'
'mól'
'lifunar'
'istr'
'ion'
'getir_'
'extension_'
'demo'
'characteristics_'
'chain'
'bin_'
'Veit'
'Thromb'
'PS_'
'KU'
'Isa'
'Hrein'
'Hey'
'COM'
'BÚ'
'ATI'
'.)._'
'áttur_'
'áfylltu_'
'yw'
'virt'
'vaccinated_'
'taktu_'
'svarað_'
'skammtaháð'
'rödd'
'reyni_'
'respond'
'parent_'
'oxo'
'orr'
'mja'
'mili'
'manufacturer_'
'manu'
'kkju'
'investigat'
'hafna'
'gather'
'fta'
'flogaveiki_'
'fjölpakkning'
'febr'
'eggj'
'court_'
'Vaccin'
'Stöðv'
'Prim'
'Ofs'
'GA'
'But'
'103'
'('
'öryggism'
'wre'
'wipe'
'where'
'versnað'
'ulf'
'typ'
'tjald'
'takið_'
'sönn'
'stækkun_'
'stakskammt'
'skáp'
'samv'
'samanburðarhóp'
'rug'
'rannsakað'
'pros'
'proper_'
'progress'
'previr'
'orange_'
'mikilvæg_'
'marka'
'iew'
'hræð'
'grow_'
'gram_'
'glýkól'
'gist'
'foll'
'flýt'
'flokkun'
'dropp'
'dolutegrav'
'djöf'
'dagsk'
'cted_'
'choli'
'battle_'
'adj'
'VIR'
'SY'
'Rétt_'
'Prev'
'OU'
'Klínísk_'
'Fort'
'Also_'
'62'
' ( _'
'þrep'
'ýta_'
'Ák'
'written_'
'whe'
'tarfsemi_'
'sóm'
'resolved_'
'númer'
'ngarn'
'nate_'
'kkar_'
'inhibits_'
'independent_'
'eðlilegr'
'endurnýjun'
'detail'
'boði'
'YTRI_'
'Vilj'
'Rich'
'Rapamune_'
'Pack'
'Koma_'
'Inn_'
'Exc'
'EN_'
'Burt'
'95'
'þjálfun_'
'þekkja_'
'úðu'
'óku'
'áðst'
'áletr'
'Þre'
'yard'
'uve'
'uro'
'urg'
'uppköstum_'
'tilkynnt'
'sýktir_'
'sendu'
'seat_'
'rosa'
'rati'
'nýja'
'máttleysi_'
'leigu'
'landið_'
'konunn'
'kallar'
'ign'
'elli'
'east'
'dráp'
'box'
'beina'
'allur_'
'Parkinson_'
'Niv'
'Komu'
'FEV1_'
'Eitur'
'Carton'
'þyngr'
'þríglýseríð'
'árangur_'
'ákvarða'
'vond'
'verst'
'transaminase'
'sweat'
'suc'
'styrkur_'
'soul_'
'simple_'
'retróveiru'
'rast'
'raise'
'page'
'oterol_'
'næ_'
'nsti'
'nevirapin'
'linsu'
'kyl'
'knee'
'kirtil'
'hreyfingar'
'hreinsun_'
'hlutverk'
'hlutfallsleg'
'heparín'
'hands'
'foc'
'eðferð_'
'dæli'
'dent'
'cetam'
'cell'
'capecítabín'
'aukaverkun'
'apolog'
'Musc'
'Est'
'ASA'
'AE_'
'þyngdartap'
'élag'
'ákvarða_'
'Ónæmis'
'weighing_'
'vul'
'varp'
'ule_'
'topo'
'tation'
'sviði_'
'stuðningsmeðferð_'
'smoke_'
'samsvarandi_'
'radioactiv'
'nivolumab'
'lækna_'
'lv'
'hverfi'
'heimu'
'halt'
'gengis'
'fyndið_'
'forgive'
'enni_'
'dreyra'
'ctor'
'carbon'
'bréf_'
'antin'
'agð'
'UE'
'Tvei'
'Seven_'
'Further'
'Conc'
'zyme_'
'xli'
'terrible_'
'stungu'
'rin_'
'raðir_'
'perform_'
'lést'
'lotu_'
'kviðverkir_'
'kringlótt'
'kra_'
'international_'
'feð'
'compos'
'chie'
'antagonist'
'Viss'
'Uppl'
'Post_'
'Kid'
'Hú'
'E46'
'DV'
'þessar'
'ægu'
'vastatin_'
'uring_'
'ungb'
'trap'
'slum_'
'skola'
'sey_'
'samþykki'
'rud'
'rifab'
'reynst_'
'paint'
'oes'
'matin'
'mata'
'klukkustunda_'
'hvít_'
'glyce'
'frost'
'def'
'crystalli'
'covered_'
'continuous_'
'brátt_'
'books'
'bindi'
'ark_'
'appelsínu'
'See'
'Parkinsons'
'PAKKNING'
'N1'
'Hætti'
'Geymslu'
'71'
'æfa'
'storm'
'sleppt'
'simvastat'
'runa'
'optim'
'nám_'
'mixtúra_'
'mbl'
'lli_'
'klin'
'ingur_'
'hotel_'
'honor_'
'eyp'
'eggjastokka'
'eftirlit'
'dissolve'
'dirt'
'con_'
'built_'
'aus_'
'alle'
'advise'
'Sé_'
'PK'
'Med'
'Major_'
'Life'
'L1'
'Inve'
'Hý'
'Alan'
'vélinda'
'viðtaka'
'virin'
'vine'
'suffering_'
'slei'
'sami'
'oða_'
'kvilli_'
'jöld'
'höld'
'fræðilega_'
'ella'
'dý'
'core_'
'aken'
'Immun'
'Ha_'
'Entacapone_'
'Am_'
'AF'
'þátttakendu'
'áka'
'tugl'
'topic'
'thal'
'síðari_'
'specifica'
'sky_'
'rinnar_'
'reini'
'persist'
'neutrophil_'
'multipack'
'mons'
'missi'
'gríp'
'gengn'
'gengi_'
'framleiðand'
'extend'
'einhverjar_'
'einan'
'egra_'
'delivery_'
'bullshit_'
'Lot'
'Induct'
'Hunt'
'FOL'
'Dýr'
'Both_'
'Black_'
'þróa'
'örvar_'
'zoledronic_'
'will'
'tösku'
'seri'
'samfell'
'prent'
'pharmacodynamic_'
'mús'
'líku'
'kröfu_'
'hook'
'grab'
'epoet'
'eini'
'cute_'
'cog'
'arfgeng'
'anaphyla'
'alat'
'Ned'
'Lamivudine_'
'Ital'
'Impr'
'Breytingar_'
'þekju'
'ðinga'
'tissues_'
'súlfónýlúrea'
'sólarhring'
'stökkbreytingar'
'stundi'
'spread_'
'skulda'
'skrú'
'reyndar_'
'nei'
'málu'
'myrt'
'local'
'landin'
'lana'
'kviðarhol'
'konungs_'
'jafn_'
'injector_'
'hraðar'
'gjörði_'
'fucked_'
'enteri'
'endpoints_'
'efnaf'
'bone'
'bana'
'arðu'
'akónazól'
'afturk'
'ViraferonPeg_'
'Sildenafil_'
'Pari'
'Clear_'
'AM_'
'vik_'
'tte_'
'supervision_'
'shortness_'
'respond_'
'reikning'
'quarte'
'prepare'
'oftast_'
'ninn'
'innihaldsefn'
'hél'
'háð'
'hirt'
'hindra_'
'framkvæmd'
'fanga'
'dán'
'daufkyrninga'
'cca'
'calls_'
'biologic'
'Saman'
'Cong'
'Aptivus_'
'AT_'
'yesterday_'
'versnan'
'vant'
'tæðu'
'tinib'
'skortur_'
'ráðleggi'
'responder'
'miðlungi_'
'ication'
'fæðing'
'færð'
'ffin'
'enga'
'demonstrat'
'convert'
'complicat'
'besti_'
'allr'
'allerg'
'aland'
'adjust_'
'NOT_'
'Glivec_'
'Arch'
'?" '
'...'
'-/_'
'þættir'
'þinnar_'
'öryggisbil'
'æ_'
'ái'
'áhættuhlutfall_'
'wen'
'vörðu'
'viðtakablokk'
'verði'
'vasa'
'umbroti'
'testi'
'tappa_'
'spil'
'onu'
'mmt'
'lækkunar_'
'loading_'
'ljóst'
'histam'
'gátu'
'fár'
'foreign'
'fondaparinux_'
'fair_'
'erkan'
'duction_'
'categor'
'bráðum_'
'brjála'
'bridge_'
'anaesthe'
'alger'
'albúmín'
'afsökunar'
'], _'
'ZAL'
'WI'
'Slí'
'Rasilez_'
'OM'
'Lyfjastofnun_'
'LABEL'
'Hverju'
'HL'
'Fyrsta_'
'Fai'
'Blóðs'
'91'
'↓ _'
'Þessu_'
'umsj'
'touch'
'tey'
'skurðaðgerð'
'sendir'
'responsibility_'
'omo'
'neutral'
'necro'
'mynda_'
'minimal'
'lungnak'
'limb'
'knowledge'
'huga'
'hettuglösum_'
'flush'
'ensk'
'dýra_'
'drepa'
'divided_'
'chil'
'blóðsykri_'
'ay'
'aris_'
'anleg_'
'VAR'
'Sál'
'Hvern_'
'ísku'
'vökvi_'
'upplýsi'
'unart'
'tía'
'trol'
'theo'
'tarf'
'swe'
'strön'
'spot'
'roid'
'reka'
'mennin'
'lytic'
'klúð'
'jun_'
'indications_'
'ind'
'hófst_'
'hugsu'
'goa'
'flut'
'dexametasón'
'check'
'blis'
'astma_'
'Thor'
'Sou'
'Rebif_'
'PSUR'
'PRA'
'Leng'
'AN_'
'íláti'
'}'
'wash'
'tremor'
'tern_'
'surprise_'
'strain_'
'staðið_'
'sprautað'
'sjúklinginn_'
'sett'
'raði'
'polypropylene_'
'nazol'
'milt'
'mask'
'killer'
'innrennslistengd'
'indí'
'færri_'
'forr'
'fallið_'
'dram'
'cardia_'
'bendi'
'bakrita'
'aðgerða'
'akli'
'Up_'
'Seve'
'RD_'
'Neur'
'Milliverk'
'Hj'
'Einh'
'Dys'
'Drott'
' %, _'
'óti'
'thereafter_'
'svol'
'region'
'plö'
'ofsa'
'nálarh'
'minnkar_'
'lift'
'leak'
'ken_'
'jet'
'improved_'
'illan'
'hröð'
'hrí'
'guideline'
'fröken_'
'duloxet'
'dle_'
'dad'
'bilir'
'akst'
'agreed_'
'Was'
'Rock'
'Ode'
'NV'
'Mama_'
'MPA_'
'Fres'
'Eruð_'
'EKKI_'
'Confi'
'wed'
'teacher'
'sweating_'
'surro'
'stíg'
'stuck_'
'reporting_'
'push'
'plane'
'olíu'
'ofv'
'ofskömmtunar'
'multicent'
'measurement'
'mabi'
'kam'
'innrennsli'
'hypot'
'heimilisf'
'folk'
'flyt'
'favor_'
'ellu'
'eep'
'disturbances_'
'búpr'
'bólu'
'bowel'
'aset'
'arað'
'Woo'
'Sma'
'Richard_'
'Mund'
'Five_'
'Even'
'Basal_'
'.)'
'áhug'
'zation'
'transamín'
'síðast'
'special'
'sort'
'skra'
'sgreining'
'sar_'
'prophylaxis_'
'predominantly_'
'marry_'
'lts_'
'lopi'
'liðverk'
'length'
'lami'
'klín'
'itself_'
'floxa'
'disp'
'búast_'
'brotthvarf'
'body'
'blokka_'
'aprepitant_'
'algenga'
'Queen'
'Leys'
'Las'
'GRA'
'Fjar'
'Dýrarannsóknir_'
'09'
'* '
'örveru'
'Þur'
'wh'
'vell'
'turi'
'sve'
'subs'
'sein'
'sanna_'
'samstundis_'
'prómellós'
'omes_'
'num'
'muster'
'mse'
'mestu_'
'logic'
'inspect'
'heyrir_'
'halo'
'gða_'
'glitaz'
'fé'
'finnum_'
'dax'
'cock'
'chose'
'blokk'
'birtar_'
'bins'
'asy'
'antiviral_'
'acc'
'WA'
'MM_'
'Lesi'
'His'
'GU'
'þróun'
'öndu'
'ói'
'west'
'veiku'
'tækin'
'tough_'
'stúlka_'
'skráð_'
'skamma'
'sealed_'
'sclero'
'rennsli'
'par_'
'owe_'
'málin'
'mule'
'lamb'
'kinase_'
'hugsanlegt_'
'hliði'
'embolis'
'dmi'
'diam'
'crew'
'consult_'
'andretróveirulyf'
'aft'
'acid'
'Tíma'
'STR'
'Mynd_'
'Lögregl'
'Intro'
'Fjó'
'101'
'ðst'
'átta'
'ulta'
'tíðahv'
'tils'
'south'
'sacrifice'
'rre'
'river'
'rfi'
'ptin'
'prófum_'
'neðr'
'leiðs'
'langvinnr'
'kynnast_'
'ily_'
'höm'
'hundruð'
'flæði_'
'dömu'
'celebr'
'bóluefnin'
'brjál'
'beinh'
'aldurshóp'
'alafenamide_'
'Skammtar'
'Paediatric_'
'Komi'
'HAL'
'14C_'
'þekkti'
'ítra'
'ætla'
'ækk'
'surve'
'sati'
'rauðum_'
'ppl'
'oxý'
'otinib'
'onat'
'nc'
'nail'
'magni'
'lovely_'
'lir_'
'lamer'
'hyperp'
'hvítu_'
'hitast'
'hide_'
'fellu'
'faint'
'excu'
'eiturv'
'com_'
'bræður_'
'bottom_'
'bjá'
'aseptic_'
'XP'
'UP'
'TH_'
'PD'
'P3'
'NR'
'Ferr'
'Best_'
'ætur'
'væði_'
'undirhóp'
'tilbún'
'sjónsker'
'seiz'
'rifi'
'pin_'
'outw'
'nt'
'myeloma_'
'moo'
'locked_'
'klæ'
'ith'
'gluggan'
'fyrirmæli_'
'farald'
'ergota'
'epla'
'ensíma'
'drauma'
'dent_'
'consec'
'closure'
'cher_'
'Show_'
'Push'
'Pharmacokinetic'
'Pas'
'LY_'
'G1'
'Fucking_'
'Flý'
'Canc'
'Bólg'
'Belg'
'Arthur_'
'3000'
'úrs'
'ótr'
'óno'
'ttan'
'ticagrelor'
'svörunar'
'sonar_'
'skemmdir'
'sine'
'sequen'
'rúmmáli'
'náðist_'
'miki'
'lífinu_'
'kólesteról_'
'klæði'
'kend'
'hámarksþéttni_'
'him'
'follic'
'fjölskylda'
'fif'
'fari'
'fant'
'eland_'
'drey'
'coronary_'
'comp'
'appoint'
'aman'
'alert'
'alafenamíð'
'Zoe'
'Sýndu_'
'Pete'
'OC'
'Leið'
'Kent'
'Gættu_'
'Drug'
'City_'
'Bron'
'Brand'
'Augn'
'Annað_'
'ófr'
'{_'
'ynn'
'yfirborði_'
'viðkvæm'
'viljið_'
'verkefni_'
'verja_'
'vagina'
'underlying_'
'uate'
'tung'
'tugu'
'titr'
'tipranavir_'
'sulfa'
'stofn'
'saquinavir'
'réttlæti'
'ræna'
'reso'
'recovered_'
'populat'
'ously_'
'ogi'
'ningar_'
'missti_'
'manufactur'
'kæru'
'ink'
'inhalation_'
'hun'
'generalis'
'eyrna'
'eiturverkun'
'einkenn'
'dollars_'
'darling_'
'cot'
'cord'
'copy'
'bad'
'UGT1A'
'Steve_'
'Scr'
'Sagði_'
'Jenn'
'Interaction'
'HBeAg_'
'Bandarík'
'$_'
' -'
'úmer'
'writing_'
'upprunaleg'
'transdermal_'
'sykurs'
'smitgát_'
'reserv'
'pron'
'promised_'
'places_'
'org'
'oke'
'obvious'
'ngl'
'negligible_'
'muna_'
'mucos'
'likes_'
'kviðve'
'kross'
'ketókóna'
'inge'
'hungry_'
'heyri'
'grel'
'fingur'
'dence'
'control'
'býs'
'boy'
'arrest_'
'ambrisentan'
'Ritonav'
'Mou'
'Kell'
'Jere'
'útset'
'únað'
'ðfr'
'witness'
'vio_'
'trú_'
'sýnileg'
'shaped_'
'rög'
'praz'
'phen'
'ovarian_'
'nýrum_'
'nz_'
'nein'
'morðing'
'meistar'
'marks'
'lín_'
'isib'
'indicat'
'government'
'force_'
'fjögur_'
'eyel'
'eró'
'encephal'
'eiði'
'einbeit'
'dehydrat'
'daufkyrninga_'
'blurred_'
'VEGF'
'Perhaps_'
'Od'
'Magnes'
'MAO_'
'Indian'
'Gran'
'> _'
'.” _'
''.'
'„_'
'úga'
'óvænt'
'óvenjuleg'
'Útb'
'verkan'
'strange_'
'stefnum'
'reject'
'quire'
'pípe'
'pecia'
'oval_'
'oestr'
'niðurs'
'máltíð'
'leyfð'
'ildi_'
'hers_'
'hemil'
'glýkóp'
'glú'
'exacerbation'
'everolimus_'
'eltromb'
'ellin'
'dial'
'bæn'
'aust_'
'así'
'askja_'
'ambu'
'afla_'
'abdom'
'Willi'
'Vori'
'Simponi_'
'Power'
'Ofnæmis'
'Lung'
'Ibandronic_'
'FRAMLEIÐ'
'Dro'
'120'
'þoku'
'æla'
'vona'
'vext'
'tto'
'stakskammta_'
'sjö'
'serotype'
'secretion_'
'reliev'
'rannsóknarstof'
'prox'
'pheny'
'narrow'
'mood'
'mataræði_'
'lti'
'loves_'
'loid'
'kveðj'
'kei'
'kast'
'immúnóglóbúlín'
'hvítfrum'
'hul'
'hrifi'
'hive'
'geant_'
'fáir_'
'duloxetine_'
'dresse'
'dly_'
'bíddu_'
'bilunar_'
'apartment_'
'aldr'
'ainly_'
'aftur'
'Victor'
'Stjór'
'Sometimes_'
'Profe'
'Opnað'
'Læ'
'Honum_'
'Fjarlægið_'
'Find'
'Bob'
'ính'
'ærð'
'your'
'vareniclin'
'urt'
'transc'
'terr'
'tail'
'síg'
'stim'
'skildi_'
'sjúkdómurinn_'
'sfer'
'samsk'
'rottu'
'reading'
'lunch'
'lom'
'lish'
'intrac'
'háskól'
'greinilega_'
'fyrirs'
'flog_'
'desc'
'confe'
'compute'
'bók'
'bráðaofnæmi_'
'blö'
'ances'
'afta'
'VELCADE_'
'Prior_'
'Levit'
'Hop'
'Hla'
'Greining'
'Gly'
'CG'
'Andskot'
'Alb'
'ACR_'
'. “'
'úra'
'ímis'
'Átt'
'water'
'users_'
'usal'
'umfram'
'stimul'
'skoða'
'nitr'
'mætti_'
'meðferðaráætlun_'
'lítil'
'líta'
'líffæri'
'lágþrýstingur_'
'lágs'
'lym'
'liragl'
'limu'
'kvísl'
'kks'
'insur'
'infusi'
'hélst_'
'hreinsað'
'hjartsláttaró'
'guil'
'falleg'
'exia_'
'ern'
'drepur'
'afli'
'afb'
'adol'
'Santa_'
'SAT'
'Fig'
'67'
'......'
'þurrkað'
'þurft'
'æðar_'
'ákveðnu'
'Þekki'
'vísbending'
'viðhaldsskammt'
'uppsöfnun_'
'undirbúning'
'teknar_'
'svöruðu_'
'skemmtileg'
'sive'
'silver_'
'shing_'
'sellulósi_'
'saxagliptin_'
'reynir_'
'puttin'
'plasm'
'physicians_'
'oura'
'ought'
'nálgast_'
'nosi'
'nide'
'miner'
'lux'
'llt'
'köttum_'
'heitt_'
'gærkv'
'fórnar'
'fás'
'fynd'
'flight'
'eðlisfræði'
'eter_'
'etanercept_'
'esthesia'
'elti'
'dagsetning_'
'chy'
'brown'
'breytingu_'
'beinmerg'
'aðla'
'author'
'atil'
'anda'
'amma'
'altered_'
'acetýlsalicýlsýr'
'abatacept_'
'Varð'
'PD_'
'National'
'Mót'
'Ljós'
'Lifr'
'IVO'
'Dreif'
'Brid'
'’._'
'þungað'
'óreglu'
'Þrýst'
'Ós'
'veginn_'
'ult_'
'sundli_'
'stræt'
'sted_'
'samleg'
'renew'
'rel_'
'ovy_'
'nder_'
'max_'
'marav'
'látum_'
'kúpu'
'kirkj'
'húðað'
'hári'
'heparin'
'heimili_'
'geislameðferð'
'fremur_'
'fication_'
'fibrosis_'
'eyðilegg'
'enoxa'
'eina'
'eglur_'
'dóttir_'
'bud'
'barnsins_'
'Verk'
'Start'
'Skjó'
'Nýr'
'Nema'
'Josh'
'",'
'ákveð'
'zine_'
'zepin'
'tus_'
'tengdust_'
'tengda'
'sib'
'rules_'
'prov'
'obstructi'
'nata'
'lystarleysi_'
'lva'
'leiða'
'lc'
'krampa_'
'jes'
'insúlíns_'
'flogaveik'
'etra'
'directi'
'ddir'
'bird_'
'XA_'
'Syndrome'
'Report'
'Prop'
'MER'
'Love_'
'Camp'
'Betaferon_'
'Ace'
'þur'
'ýri'
'ískum_'
'és'
'ávísu'
'áta'
'Ót'
'yfirma'
'virðast_'
'veitt_'
'therapies_'
'tegundu'
'ssing'
'spurningu'
'ræður'
'remaining_'
'postm'
'percentage_'
'pata'
'outc'
'othi'
'orku'
'nauðs'
'multifo'
'mikilvægar'
'meðferðarlotu_'
'ktu_'
'knu'
'kles'
'kle_'
'jugat'
'inndæling_'
'idín_'
'hjö'
'gnostic'
'geislam'
'equi'
'ends_'
'eitthvert_'
'einstaka'
'consequence'
'conscious'
'ckl'
'bbe'
'bav'
'asin'
'SoloStar_'
'Saf'
'Ring'
'Ral'
'RTI'
'Next_'
'INA'
'Eye'
'Eight'
'EE'
'74'
'ÖR'
'vary'
'undarle'
'ukka'
'sæll'
'safnað'
'róf'
'ríki'
'rule_'
'produ'
'organs_'
'neinu_'
'metha'
'mab'
'lok'
'lls'
'kenna'
'jour'
'ino_'
'identif'
'hliðina_'
'despi'
'danc'
'contra'
'cholest'
'cartridges_'
'carri'
'blóðfit'
'ani_'
'Teng'
'Sweet'
'GP'
'Easy'
'))._'
' :'
'úi'
'ófullnægjandi_'
'undergo'
'thalidom'
'tegundi'
'tap'
'sótt'
'substituti'
'ringl'
'righteous'
'rici'
'regist'
'rauðkorna'
'rampa'
'pípl'
'omni'
'næring'
'ncy_'
'munns'
'juxta'
'iðj'
'iris_'
'involving_'
'invasi'
'hyr'
'holy_'
'hannesarjurt'
'gleik'
'genetic_'
'fars'
'essa'
'compromis'
'chills_'
'blu'
'azide_'
'West_'
'Ráðleg'
'Náðu'
'Lág'
'INV'
'Guys_'
'Getur_'
'Emtricitabin'
'ESS'
'Bíðið'
'ástæðu_'
'unnar'
'understa'
'ucom'
'trime'
'tist_'
'sólarhrings'
'stöðugle'
'stone_'
'sinus'
'shu'
'sbólg'
'ruflan'
'náladofi_'
'nucleos'
'loratadine_'
'liter'
'leiðbeining'
'lds_'
'ldr'
'kynnt'
'ince'
'fyrirhug'
'frábending'
'forv'
'fenib_'
'enemy_'
'crack'
'contrast_'
'ched_'
'cellular_'
'blokka'
'attache'
'atric'
'atio'
'aló'
'abu'
'Tilb'
'Tablet'
'Tab'
'Road_'
'Phar'
'Hei'
'♪ '
'óbreyt'
'íba'
'æri_'
'ákveðn'
'vaso'
'upi'
'umhverfis_'
'tvíblindu'
'tokk'
'tafar'
'sundur_'
'sprauta'
'slímhúð_'
'sachet_'
'loftb'
'litninga'
'lith'
'lgia'
'landa'
'kkj'
'ison'
'ican_'
'hrollur_'
'gradual'
'glycol_'
'fjölskyldu'
'enl'
'eat'
'communicat'
'brjóta_'
'appli'
'ansi_'
'Vor'
'Tin'
'Fis'
'Dic'
'Contr'
'Cimzia_'
'ASA_'
'175'
'þunglyndi'
'ýking_'
'íms'
'Þrá'
'wicked'
'vidual'
'vatin'
'tiltek'
'terf'
'sókn'
'rhi'
'rann_'
'neð'
'ndur_'
'moi'
'malignant_'
'magic'
'lönd'
'kjál'
'iol'
'ifa'
'iah_'
'hætt'
'hlaup_'
'gúmmítappa'
'furð'
'eta_'
'eo_'
'einkennin_'
'dilat'
'calcaemia_'
'beið'
'asshole_'
'afsa'
'Under'
'TCH'
'Reduc'
'Read_'
'Rach'
'Mæl'
'Líkleg'
'Lock'
'H2'
'FF'
': ↑ _'
'83'
'þrota_'
'úe'
'ólur'
'ðus'
'xil'
'wrote_'
'umbrotse'
'trick'
'thoughts_'
'tef'
'sýking'
'staði'
'stairs_'
'spurði_'
'speaking_'
'skrít'
'reinsu'
'prednisó'
'pound'
'ologi'
'nau'
'nasi'
'muni_'
'mpr'
'mple'
'lyfi'
'lenalídómíð'
'ják'
'hospita'
'hlífð'
'haemorrh'
'fenýt'
'epis'
'elv'
'dih'
'cycli'
'cloth'
'circumstances_'
'astæ'
'Schmidt_'
'Próf'
'Mother_'
'Kil'
'Effects_'
'Colonel_'
'BOX'
'Anne'
'Angi'
'Acl'
' ='
'ættin'
'Ýt'
'ycar'
'wir'
'thie'
'tent_'
'teen'
'rne'
'repro'
'ox_'
'neutrop'
'mycop'
'mtu'
'lispr'
'gæf'
'gerst_'
'esonid'
'erting_'
'emtrícítabín_'
'divi'
'dida'
'denta'
'candi'
'authorit'
'Uncle_'
'TM'
'Robert_'
'RIN'
'Prob'
'Ola'
'King'
'Gjör'
'Emtri'
'Contac'
'Alzheimer'
'".'
' %), _'
'þáttur_'
'ósteró'
'Þýsk'
'ute'
'tópó'
'tort'
'tender'
'teli'
'sögun'
'sít'
'surf'
'sið'
'ratio'
'pso'
'progressive_'
'private'
'preparations_'
'pleasur'
'plann'
'osteron'
'oot'
'nia'
'myn'
'muscles_'
'lét'
'lokastig'
'hts_'
'hró'
'hromyc'
'hjúkrunarfræðingur'
'heavy_'
'girlfriend_'
'fracture'
'excite'
'doxórúb'
'complex'
'chel'
'brjóstve'
'bauð_'
'alvarleg'
'alega'
'ack_'
'Vale'
'Trulicity'
'Oral'
'OV'
'Ltd_'
'Holde'
'Hjálp'
'Follow'
'93'
', ''
'áhættuþætti_'
'ágæt'
'vúd'
'uno'
'trúð'
'treysti'
'swim'
'sucrose_'
'skólanum_'
'rotein'
'rmi'
'ripti'
'perit'
'perc'
'pan_'
'obligation_'
'nálar_'
'lifrarb'
'life'
'kus'
'ifl'
'hálsk'
'helví'
'heli'
'haemop'
'föt_'
'framf'
'flushing_'
'fluc'
'favor'
'exceed'
'equently_'
'ending_'
'eininga'
'eignast_'
'delay_'
'cts'
'captain'
'byrju'
'asetat'
'arth'
'angur'
'ameðferð'
'akr'
'VTE'
'Street_'
'Lækni'
'Jake_'
'Helví'
'Eva'
'CYP450'
'Aukn'
'þróttleysi'
'óðu'
'Ítar'
'viðhaldsmeðferð'
'viðhal'
'uppf'
'uhe'
'threa'
'tapre'
'sval'
'susceptibilit'
'sufficient_'
'suff'
'smo'
'sas'
'reference'
'posaconazol'
'pepti'
'passe'
'myndum_'
'mv'
'mechan'
'meat'
'log10_'
'kínas'
'kyns_'
'któsa'
'kjól'
'kingdom'
'jail_'
'ipilimumab'
'involve'
'inactivat'
'holleg'
'fyl'
'fungin'
'frie'
'etam'
'eggjas'
'college'
'bodi'
'aukningar'
'almenna'
'Won'
'Seco'
'Lj'
'Langa'
'Innrennsli'
'Close'
'Beth_'
'Anyway'
' (-'
'útbú'
'óbútýl'
'ði'
'yrningaf'
'viðbótarmeðferð_'
'uten'
'upphafleg'
'typical'
'tvíblindri_'
'ticke'
'tenófóvír'
'taln'
'stíflu'
'stærst'
'rten'
'reykja_'
'rann'
'particul'
'nýj'
'notuð'
'nokkurr'
'names_'
'missir'
'lungnabólgu_'
'leitar'
'kön'
'krakka'
'ize_'
'innt'
'ilyf'
'höndin'
'hvítt_'
'honest_'
'hinir'
'eting'
'elsi'
'earlie'
'dve'
'descend'
'blæði'
'approved_'
'amou'
'ail'
'UA'
'Töl'
'Myoc'
'MEN'
'Les'
'Leon'
'Laur'
'Int'
'Fullo'
'Andre'
'®'
'…'
'º'
';'
'†'
'↔'
''
''
'#'
''
'½'
'@'
':'
'°'
'×'
'�'
'♪'
'~'
''
'§'
'≥'
'♫'
'μ'
'™'
'>'
'['
''
'`'
''
'≤'
'ü'
'↓'
'<'
'∞'
'λ'
'·'
''
'τ'
'ß'
'&'
'α'
'ñ'
''
''
'ä'
'­'
'→'
'„'
'¶'
''
'è'
'‡'
'^'
'–'
'$'
'Ε'
''
'η'
'{'
''
'Τ'
''
'л'
''
'‚'
'¡'
''
'γ'
'|'
'Δ'
''
'ā'
'−'
'³'
''
''
'ê'
'='
'─'
'⁺'
'à'
''
'а'
''
''
'Α'
'◊'
'â'
'‘'
'£'
'δ'
'и'
'ë'
'е'
''
'р'
'κ'
''
'ά'
'Λ'
''
'©'
'´'
'ž'
'ï'
''
'ς'
'˚'
'€'
'˂'
'″'
'‟'
'ъ'
''
'г'
'Б'
'∙'
'ø'
'я'
'š'
'ã'
''
'ρ'
'ﬁ'
'―'
'О'
'Č'
'û'
''
'ﬂ'
''
''
'с'
'ô'
''
'—'
'ε'
'Š'
'č'
'»'
'«'
''
'Σ'
'²'
''
'​'
'Ü'
''
'т'
'ç'
'ª'
'∆'
'‐'
'Κ'
'ė'
'у'
''
'♦'
'Å'
'н'
'Т'
''
'ύ'
'π'
'ő'
''
''
'к'
'Д'
'Β'
''
'‰'
'ι'
'ί'
''
''
''
''
'о'
'м'
'в'
'Е'
'Є'
'ī'
'¼'
''
''
''
''
'⏐'
''
''
''
''
'●'
'′'
'А'
'υ'
'Φ'
'ù'
'ò'
'î'
''
''
''
'‒'
'‑'
'ν'
'ζ'
'å'
'¾'
''
'▲'
'Ν'
'¤'
''
''
'К'
'ό'
'ω'
'σ'
'ł'
'ć'
'Î'
'À'
''
''
''
''
'┼'
'≧'
'ю'
'б'
'Π'
'Γ'
'ʼ'
'ň'
'Ò'
'¿'
''
''
'д'
'Г'
'Ρ'
'Μ'
'Ι'
'ě'
'Ä'
''
''
''
''
''
'♯'
'♠'
'≈'
'⁄'
'й'
'з'
'Ф'
'С'
'Р'
'Л'
'χ'
'θ'
'ή'
'Ψ'
'Χ'
'̶'
'ų'
'ş'
'Ã'
'Â'
'¹'
'¨'
'¦'
''
''
'⎯'
'ớ'
'п'
'Ξ'
'̴'
'ţ'
'đ'
'Đ'
'¬'
'¢'
''
''
''
''
''
''
''
''
''
''
''
''
''
'○'
'║'
'∼'
'↘'
'›'
'‎'
' '
'׀'
'х'
'ф'
'Х'
'П'
'М'
'З'
'ξ'
'Υ'
'̈'
'˃'
'ɣ'
'ƙ'
'ż'
'Ż'
'ń'
'ē'
'ì'
'Ï'
'Ç'
'¸'
'¥'
' '
''
''
''
''
''
''
''
''
''
''
''
'℃'
'₂'
'ת'
'ש'
'ר'
'ק'
'צ'
'פ'
'ע'
'ס'
'מ'
'ל'
'כ'
'י'
'ט'
'ז'
'ו'
'ה'
'ד'
'ג'
'ב'
'א'
'қ'
'ь'
'В'
'Ј'
'φ'
'έ'
'Η'
'Ί'
'·'
'ƒ'
'œ'
'İ'
'÷'
'Ô'
'Ê'
'•'
